#ifndef MODEL_H
#define MODEL_H

#include <cstdint>

const uint8_t model[] = {
0x1c, 0x0, 0x0, 0x0, 0x54, 0x46, 0x4c, 0x33, 0x14, 0x0, 0x20, 0x0, 0x1c, 0x0, 0x18, 0x0, 0x14, 0x0, 0x10, 0x0, 0xc, 0x0, 0x0, 0x0, 0x8, 0x0, 0x4, 0x0, 0x14, 0x0, 0x0, 0x0, 0x1c, 0x0, 0x0, 0x0, 0x8c, 0x0, 0x0, 0x0, 0xe4, 0x0, 0x0, 0x0, 0xfc, 0x2a, 0x0, 0x0, 0xc, 0x2b, 0x0, 0x0, 0xe0, 0x2f, 0x0, 0x0, 0x3, 0x0, 0x0, 0x0, 0x1, 0x0, 0x0, 0x0, 0x10, 0x0, 0x0, 0x0, 0x0, 0x0, 0xa, 0x0, 0x10, 0x0, 0xc, 0x0, 0x8, 0x0, 0x4, 0x0, 0xa, 0x0, 0x0, 0x0, 0xc, 0x0, 0x0, 0x0, 0x1c, 0x0, 0x0, 0x0, 0x38, 0x0, 0x0, 0x0, 0xf, 0x0, 0x0, 0x0, 0x73, 0x65, 0x72, 0x76, 0x69, 0x6e, 0x67, 0x5f, 0x64, 0x65, 0x66, 0x61, 0x75, 0x6c, 0x74, 0x0, 0x1, 0x0, 0x0, 0x0, 0x4, 0x0, 0x0, 0x0, 0x9c, 0xff, 0xff, 0xff, 0x9, 0x0, 0x0, 0x0, 0x4, 0x0, 0x0, 0x0, 0x7, 0x0, 0x0, 0x0, 0x64, 0x65, 0x6e, 0x73, 0x65, 0x5f, 0x38, 0x0, 0x1, 0x0, 0x0, 0x0, 0x4, 0x0, 0x0, 0x0, 0x92, 0xd5, 0xff, 0xff, 0x4, 0x0, 0x0, 0x0, 0x7, 0x0, 0x0, 0x0, 0x69, 0x6e, 0x70, 0x75, 0x74, 0x5f, 0x33, 0x0, 0x2, 0x0, 0x0, 0x0, 0x34, 0x0, 0x0, 0x0, 0x4, 0x0, 0x0, 0x0, 0xdc, 0xff, 0xff, 0xff, 0xc, 0x0, 0x0, 0x0, 0x4, 0x0, 0x0, 0x0, 0x13, 0x0, 0x0, 0x0, 0x43, 0x4f, 0x4e, 0x56, 0x45, 0x52, 0x53, 0x49, 0x4f, 0x4e, 0x5f, 0x4d, 0x45, 0x54, 0x41, 0x44, 0x41, 0x54, 0x41, 0x0, 0x8, 0x0, 0xc, 0x0, 0x8, 0x0, 0x4, 0x0, 0x8, 0x0, 0x0, 0x0, 0xb, 0x0, 0x0, 0x0, 0x4, 0x0, 0x0, 0x0, 0x13, 0x0, 0x0, 0x0, 0x6d, 0x69, 0x6e, 0x5f, 0x72, 0x75, 0x6e, 0x74, 0x69, 0x6d, 0x65, 0x5f, 0x76, 0x65, 0x72, 0x73, 0x69, 0x6f, 0x6e, 0x0, 0xd, 0x0, 0x0, 0x0, 0x14, 0x2a, 0x0, 0x0, 0xc, 0x2a, 0x0, 0x0, 0xf8, 0x29, 0x0, 0x0, 0x60, 0x29, 0x0, 0x0, 0x50, 0x28, 0x0, 0x0, 0x40, 0x21, 0x0, 0x0, 0x30, 0x1, 0x0, 0x0, 0xa0, 0x0, 0x0, 0x0, 0x98, 0x0, 0x0, 0x0, 0x90, 0x0, 0x0, 0x0, 0x88, 0x0, 0x0, 0x0, 0x68, 0x0, 0x0, 0x0, 0x4, 0x0, 0x0, 0x0, 0x3a, 0xd6, 0xff, 0xff, 0x4, 0x0, 0x0, 0x0, 0x54, 0x0, 0x0, 0x0, 0xc, 0x0, 0x0, 0x0, 0x8, 0x0, 0xe, 0x0, 0x8, 0x0, 0x4, 0x0, 0x8, 0x0, 0x0, 0x0, 0x10, 0x0, 0x0, 0x0, 0x24, 0x0, 0x0, 0x0, 0x0, 0x0, 0x6, 0x0, 0x8, 0x0, 0x4, 0x0, 0x6, 0x0, 0x0, 0x0, 0x4, 0x0, 0x0, 0x0, 0x0, 0x0, 0x0, 0x0, 0x0, 0x0, 0xa, 0x0, 0x10, 0x0, 0xc, 0x0, 0x8, 0x0, 0x4, 0x0, 0xa, 0x0, 0x0, 0x0, 0x2, 0x0, 0x0, 0x0, 0x2, 0x0, 0x0, 0x0, 0x4, 0x0, 0x0, 0x0, 0x6, 0x0, 0x0, 0x0, 0x32, 0x2e, 0x31, 0x34, 0x2e, 0x30, 0x0, 0x0, 0x9a, 0xd6, 0xff, 0xff, 0x4, 0x0, 0x0, 0x0, 0x10, 0x0, 0x0, 0x0, 0x31, 0x2e, 0x35, 0x2e, 0x30, 0x0, 0x0, 0x0, 0x0, 0x0, 0x0, 0x0, 0x0, 0x0, 0x0, 0x0, 0xe0, 0xd1, 0xff, 0xff, 0xe4, 0xd1, 0xff, 0xff, 0xe8, 0xd1, 0xff, 0xff, 0xc2, 0xd6, 0xff, 0xff, 0x4, 0x0, 0x0, 0x0, 0x80, 0x0, 0x0, 0x0, 0x20, 0x7f, 0x96, 0xbd, 0x9a, 0x13, 0x2c, 0xbe, 0x14, 0x6d, 0xb5, 0xbe, 0x61, 0xe8, 0x78, 0xbe, 0xb6, 0xf7, 0xb7, 0xbb, 0xe9, 0xcf, 0x87, 0xbe, 0xb3, 0x0, 0xdc, 0x3e, 0x7a, 0xeb, 0x1a, 0x3e, 0xa2, 0x26, 0xf0, 0x3b, 0x99, 0x66, 0x94, 0xbe, 0x2f, 0x36, 0x6f, 0x3e, 0xcb, 0x28, 0xc5, 0xbe, 0x16, 0x38, 0x3f, 0x3e, 0xeb, 0xac, 0x86, 0xbe, 0xb, 0xc3, 0xa3, 0xbe, 0xc3, 0x67, 0xb4, 0xbe, 0xc, 0xbe, 0xdf, 0x3e, 0x56, 0xf9, 0xeb, 0xbd, 0x4c, 0x30, 0xb5, 0x3d, 0xa6, 0xb6, 0x91, 0xbe, 0xf8, 0x86, 0xd7, 0xbd, 0xe9, 0xad, 0xcb, 0xbe, 0xd9, 0x66, 0xb1, 0x3e, 0xe0, 0xb9, 0xa3, 0x3e, 0x18, 0x7b, 0x88, 0x3e, 0x12, 0x87, 0x5, 0x3e, 0x18, 0x9, 0x5b, 0xbe, 0x8b, 0x3a, 0xfa, 0x3d, 0xea, 0xc3, 0xb1, 0xbe, 0x30, 0x81, 0xd8, 0x3e, 0xdb, 0x13, 0xae, 0x3e, 0xe4, 0x8c, 0x3b, 0xbd, 0x4e, 0xd7, 0xff, 0xff, 0x4, 0x0, 0x0, 0x0, 0x0, 0x20, 0x0, 0x0, 0x85, 0xd8, 0xd5, 0xbd, 0x3a, 0x13, 0xd8, 0x3d, 0xee, 0x36, 0x77, 0xbd, 0x70, 0xc6, 0x3d, 0xbe, 0x6c, 0xfe, 0x44, 0xbe, 0x80, 0x93, 0x1f, 0x3d, 0x18, 0x87, 0xb, 0xbe, 0xbc, 0x69, 0x3b, 0x3e, 0xad, 0x4b, 0x23, 0xbe, 0x4c, 0x55, 0x7c, 0x3e, 0xa1, 0xa3, 0xb1, 0xbd, 0xcf, 0x63, 0x82, 0x3c, 0xff, 0x5b, 0x74, 0xbe, 0x60, 0x2, 0x19, 0x3c, 0x3c, 0x9e, 0xad, 0x3d, 0x6a, 0x5, 0x72, 0xbe, 0x6c, 0x46, 0xb6, 0xbc, 0x14, 0xd7, 0x82, 0xbd, 0x11, 0xc0, 0x13, 0x3d, 0xf0, 0x98, 0xde, 0x3d, 0x17, 0x4f, 0xc6, 0x3d, 0x74, 0x5c, 0x10, 0xbe, 0xa8, 0x4c, 0x66, 0xbe, 0x6f, 0x19, 0xe9, 0xbc, 0x8b, 0x7b, 0x25, 0xbe, 0x9a, 0x8d, 0x6b, 0xbe, 0x56, 0xb8, 0x9, 0xbe, 0xbf, 0xab, 0x50, 0xbe, 0x75, 0xd3, 0x30, 0x3e, 0x88, 0x5a, 0x65, 0x3e, 0xc0, 0xf8, 0x3a, 0x3c, 0xa8, 0xcf, 0x67, 0x3e, 0xff, 0x90, 0xb9, 0xbd, 0xfe, 0xed, 0x1e, 0xbe, 0x7c, 0x66, 0x6d, 0xbe, 0xf0, 0x2a, 0x9a, 0x3d, 0xa8, 0x3c, 0x84, 0xbd, 0x27, 0xa4, 0x9d, 0xbd, 0xa2, 0x63, 0x10, 0x3d, 0xc8, 0x2f, 0x7f, 0xbe, 0x58, 0xd7, 0x44, 0xbe, 0x14, 0x2d, 0x79, 0xbe, 0x48, 0x13, 0x41, 0x3c, 0x9e, 0x1c, 0x3c, 0xbe, 0xac, 0x1b, 0x75, 0xbe, 0xc, 0x97, 0x10, 0xbe, 0xb4, 0xd8, 0x44, 0x3d, 0x12, 0x3c, 0x65, 0x3e, 0x5a, 0x23, 0x3f, 0xbe, 0xcd, 0xf4, 0x42, 0x3e, 0xe0, 0x49, 0x95, 0xbc, 0x6c, 0x6e, 0x58, 0xbe, 0x86, 0xf9, 0x81, 0xbe, 0x40, 0x48, 0x71, 0xbe, 0x44, 0xc0, 0x50, 0xbe, 0x1f, 0x54, 0x46, 0xbe, 0xd9, 0x32, 0xc, 0x3e, 0xdd, 0xca, 0xf8, 0xbd, 0xe6, 0x3, 0x67, 0xbe, 0xa8, 0x65, 0x5f, 0xbe, 0x5e, 0xe6, 0x49, 0x3d, 0x95, 0xdc, 0x1b, 0x3e, 0x44, 0x13, 0xd1, 0xbd, 0xdf, 0x17, 0x97, 0x3c, 0x6e, 0x2a, 0x48, 0xbe, 0xd9, 0x30, 0x0, 0xbd, 0xf0, 0x7, 0x35, 0xbd, 0x96, 0x9, 0x53, 0xbe, 0xbc, 0x73, 0x7c, 0xbe, 0xd0, 0x6c, 0x6b, 0xbe, 0xb8, 0x54, 0xd0, 0x3d, 0xa3, 0xf, 0x8b, 0x3c, 0xfd, 0xa7, 0xb3, 0x3c, 0x80, 0xb6, 0xd0, 0xbc, 0xba, 0xba, 0x6a, 0x3e, 0xb2, 0xf1, 0x1f, 0xbd, 0xfc, 0xd, 0x11, 0x3e, 0xf6, 0xf5, 0x41, 0x3e, 0xdf, 0x16, 0x59, 0x3e, 0x2a, 0x9a, 0x7a, 0xbe, 0xbe, 0xb2, 0x22, 0x3e, 0x4e, 0x25, 0x23, 0x3e, 0xbc, 0xc9, 0xfb, 0x3d, 0xf3, 0x89, 0x17, 0x3e, 0xb0, 0x86, 0x73, 0x3b, 0x14, 0x45, 0x37, 0xbe, 0x68, 0x78, 0xe1, 0xbd, 0xe0, 0x97, 0xda, 0xbd, 0x7c, 0x50, 0x7a, 0xbe, 0x15, 0x14, 0x20, 0xbd, 0xe8, 0xe3, 0x2c, 0x3e, 0xde, 0x4, 0x56, 0xbe, 0x28, 0x7e, 0x44, 0x3d, 0x77, 0xc5, 0xe9, 0xbd, 0x84, 0x4f, 0x6, 0xbe, 0x80, 0xbc, 0x7d, 0xbd, 0x4f, 0x2a, 0x5a, 0x3d, 0x80, 0xbe, 0x74, 0x3e, 0x68, 0x3b, 0xaa, 0xbd, 0x0, 0xe8, 0x61, 0xbe, 0xd6, 0xdc, 0x27, 0xbe, 0x2, 0x88, 0x77, 0xbd, 0x17, 0x4f, 0xeb, 0x3b, 0xe0, 0x27, 0x8e, 0x3c, 0x10, 0x72, 0x34, 0x3d, 0x28, 0xb5, 0x94, 0xbd, 0x26, 0x3f, 0xeb, 0xbd, 0xf8, 0x8e, 0x1c, 0x3e, 0x44, 0x9c, 0x7, 0x3e, 0xa5, 0x72, 0x0, 0x3e, 0x17, 0x59, 0x27, 0xbe, 0xb0, 0x9d, 0x37, 0xbd, 0xe0, 0xbf, 0xce, 0xbc, 0xc, 0x21, 0x72, 0x3e, 0xe0, 0x1a, 0x6b, 0x3d, 0x83, 0xf1, 0x1e, 0xbe, 0xbf, 0x96, 0xfa, 0x3c, 0x6b, 0x81, 0x36, 0x3e, 0x64, 0xf9, 0x1, 0x3e, 0x99, 0xc1, 0x46, 0xbe, 0x17, 0x3a, 0x21, 0xbd, 0xb5, 0x6, 0x40, 0xbe, 0x74, 0x92, 0x4b, 0x3e, 0x48, 0x7d, 0x27, 0xbe, 0xe7, 0xc4, 0xf8, 0x3d, 0x32, 0x91, 0xef, 0xbd, 0xfc, 0x6f, 0x59, 0xbe, 0x2, 0x7e, 0x42, 0xbe, 0x3d, 0xc6, 0xaf, 0x3d, 0x3a, 0xc0, 0x87, 0x3d, 0x39, 0x45, 0x4d, 0x3c, 0x40, 0xf8, 0xaf, 0xbd, 0xc4, 0xf7, 0x32, 0x3e, 0x7b, 0xec, 0x6, 0x3d, 0x6f, 0x4c, 0x30, 0x3e, 0xec, 0xdd, 0xcc, 0x3d, 0x31, 0x11, 0x4b, 0x3d, 0x80, 0xd7, 0x92, 0x3d, 0xf4, 0x85, 0x2f, 0x3e, 0x7, 0x46, 0x2d, 0x3e, 0xce, 0x30, 0xac, 0x3d, 0xa3, 0xd9, 0xd5, 0xbc, 0x11, 0x90, 0xd, 0x3d, 0x32, 0x66, 0x5e, 0x3e, 0x3e, 0x58, 0x81, 0xbe, 0xfb, 0x79, 0x76, 0xbe, 0x97, 0xce, 0x42, 0x3d, 0xf6, 0x92, 0xb3, 0xbd, 0x2a, 0xb3, 0x14, 0x3e, 0xfe, 0xf1, 0x1c, 0x3d, 0xf8, 0xbd, 0x99, 0x3d, 0xd7, 0x7c, 0x63, 0x3e, 0xf4, 0xf2, 0xf5, 0xbd, 0xc0, 0x79, 0xe0, 0x3b, 0xc2, 0xc9, 0xf4, 0xbd, 0xf, 0x16, 0xbc, 0x3d, 0x55, 0xc3, 0x44, 0xbd, 0xed, 0x31, 0x18, 0x3d, 0x2c, 0x6b, 0x68, 0x3e, 0xe3, 0x5e, 0x41, 0xbd, 0x46, 0xd8, 0x53, 0x3e, 0xca, 0xe8, 0x25, 0xbd, 0x90, 0x43, 0x21, 0xbd, 0x28, 0x6e, 0x17, 0x3e, 0xe9, 0x28, 0x5c, 0x3e, 0x86, 0x9a, 0x2e, 0xbe, 0xee, 0xbd, 0x69, 0xbe, 0x40, 0x18, 0xe, 0x3c, 0x76, 0x43, 0x7e, 0xbe, 0xec, 0x2d, 0x3, 0xbe, 0x48, 0x8c, 0xb4, 0x3d, 0xd0, 0xaf, 0xdb, 0x3d, 0x30, 0x83, 0xf1, 0xbd, 0xd0, 0x91, 0xb, 0x3e, 0x12, 0x89, 0x29, 0x3e, 0xc2, 0x88, 0x72, 0x3e, 0xf8, 0xff, 0x19, 0x3e, 0x5a, 0x9c, 0x6b, 0xbe, 0x22, 0xe0, 0xd5, 0x3d, 0x75, 0xab, 0xbd, 0x3c, 0x40, 0x68, 0x7, 0x3e, 0x86, 0x32, 0x4e, 0xbe, 0x16, 0x99, 0xb, 0xba, 0xf2, 0xed, 0x43, 0x3e, 0x89, 0xa3, 0x85, 0xbe, 0x71, 0xf, 0x41, 0xbe, 0x81, 0x9f, 0xa6, 0x3b, 0x7b, 0x53, 0xab, 0x3c, 0x68, 0xa, 0xe1, 0xbd, 0xdc, 0x1, 0x2b, 0x3e, 0x53, 0x88, 0x16, 0xbd, 0x31, 0x96, 0x3e, 0xbd, 0x96, 0x7d, 0x28, 0xbe, 0x91, 0x8b, 0xe8, 0xbd, 0xc8, 0x67, 0x82, 0xbe, 0x52, 0xd8, 0x9c, 0x3d, 0x80, 0xdc, 0x74, 0x3d, 0x39, 0x4f, 0x40, 0x3e, 0x4d, 0x8f, 0x7, 0x3e, 0xa, 0xa9, 0x6b, 0xbd, 0xe4, 0x4e, 0x5a, 0x3c, 0x8, 0xc2, 0x1, 0xbe, 0x18, 0xbc, 0x1d, 0x3e, 0xbf, 0x4b, 0x39, 0xbe, 0x14, 0x6, 0x8a, 0xbd, 0x1a, 0x89, 0x58, 0xbd, 0x20, 0x71, 0x6e, 0xbd, 0xf1, 0xcc, 0x91, 0x3d, 0xec, 0x3f, 0xe, 0x3e, 0xd5, 0x57, 0x2a, 0x3e, 0xd3, 0xb1, 0xe, 0xbe, 0xff, 0x98, 0x37, 0xbe, 0x79, 0x47, 0x7a, 0xbe, 0xe4, 0xfa, 0x5e, 0x3e, 0x4, 0xf, 0xb, 0xbe, 0xc, 0x62, 0xc6, 0xbd, 0x87, 0x9b, 0x10, 0xbd, 0x51, 0xd5, 0x12, 0x3e, 0x44, 0x13, 0xd9, 0xbd, 0xf3, 0xe, 0x2d, 0x3e, 0x87, 0x3e, 0x6c, 0x3e, 0x62, 0x7, 0x57, 0xbe, 0x35, 0x14, 0x98, 0x3d, 0x9b, 0xd5, 0xf2, 0x3d, 0x15, 0x64, 0xc7, 0x3d, 0x27, 0xdd, 0x5a, 0x3e, 0x70, 0x24, 0x69, 0xbd, 0xba, 0xd3, 0x46, 0xbe, 0xfd, 0x96, 0xad, 0x3d, 0xe, 0x28, 0x47, 0xbe, 0xf3, 0x5b, 0x0, 0x3e, 0x60, 0x4, 0x63, 0x3e, 0x0, 0x4e, 0x6e, 0x3c, 0xf8, 0x8d, 0xe9, 0x3d, 0xde, 0x30, 0x88, 0xbe, 0x63, 0xb1, 0x3e, 0xbe, 0xb8, 0xeb, 0xae, 0xbd, 0xe3, 0xd7, 0x9a, 0xbd, 0x97, 0xf, 0x86, 0xbd, 0x22, 0x19, 0x11, 0xbe, 0xac, 0xfa, 0x20, 0x3e, 0x7a, 0x46, 0x8b, 0x3d, 0x21, 0xf0, 0x59, 0xbe, 0x90, 0xac, 0x1f, 0xbe, 0xfa, 0xf4, 0xd5, 0x3d, 0xab, 0x27, 0x7, 0x3e, 0xb3, 0x91, 0x27, 0x3d, 0x8c, 0x9, 0x7f, 0x3d, 0x55, 0xd1, 0x49, 0x3e, 0xbc, 0x4d, 0x2, 0x3e, 0x78, 0xed, 0x76, 0xbe, 0xe4, 0xd1, 0x9, 0xbe, 0xe8, 0x72, 0xb6, 0x3d, 0x8d, 0x9a, 0xe3, 0x3c, 0xc7, 0xf6, 0x35, 0xbe, 0xc2, 0x98, 0x45, 0xbe, 0x9, 0x7f, 0x95, 0x3d, 0xdf, 0x13, 0x49, 0x3d, 0xd7, 0x92, 0xe2, 0xbb, 0x5a, 0x23, 0x4f, 0xbd, 0x80, 0x3c, 0x70, 0x3e, 0x89, 0xd, 0x4f, 0x3e, 0xd6, 0x27, 0x6e, 0x3e, 0x27, 0x83, 0x19, 0xbe, 0x6, 0x24, 0xf5, 0x3d, 0x88, 0xfd, 0xec, 0xbd, 0x1f, 0xee, 0x6f, 0x3e, 0xc0, 0xde, 0xaf, 0xbd, 0xa2, 0x3, 0xfc, 0x3c, 0x2f, 0x51, 0xc2, 0xbc, 0x70, 0x78, 0xbe, 0x3b, 0xe0, 0x99, 0xa4, 0xbd, 0x68, 0xa0, 0xdb, 0xbb, 0x17, 0x67, 0x78, 0xbd, 0x27, 0x97, 0x76, 0x3d, 0xe3, 0x91, 0x1c, 0xbd, 0x77, 0xc, 0x1d, 0x3e, 0xd0, 0xb, 0x4, 0xbe, 0xa8, 0x84, 0x9a, 0x3d, 0x5a, 0xaa, 0x17, 0x3c, 0x37, 0x95, 0xc5, 0x3d, 0x29, 0x9a, 0x1c, 0xbe, 0x87, 0x15, 0x6a, 0xbd, 0xeb, 0xd6, 0x5b, 0xbe, 0xfc, 0xf8, 0xd4, 0xbc, 0xf2, 0x44, 0x8a, 0xbb, 0xd1, 0x58, 0x95, 0x3d, 0x20, 0xf9, 0xe, 0xbe, 0xf4, 0x29, 0x91, 0x3d, 0xe4, 0x1f, 0x4, 0x3e, 0x8c, 0x9d, 0x1d, 0xbe, 0xdd, 0x28, 0xf0, 0xbd, 0x4f, 0x82, 0x4b, 0xbd, 0xe8, 0x8f, 0x7e, 0xbe, 0x49, 0x38, 0x74, 0xbd, 0x20, 0x9a, 0x74, 0xbd, 0x50, 0x52, 0x49, 0x3d, 0x94, 0xf, 0x62, 0x3e, 0x60, 0x85, 0x13, 0x3d, 0x41, 0x7b, 0x9e, 0xbd, 0x18, 0xad, 0x48, 0x3e, 0x1c, 0xb9, 0x13, 0x3e, 0x45, 0x8c, 0xc9, 0xbd, 0x8c, 0xda, 0x95, 0xba, 0x0, 0xfa, 0xb9, 0xbc, 0x55, 0xdc, 0x55, 0xbe, 0x49, 0x28, 0x71, 0x3d, 0xe0, 0xfa, 0x30, 0x3e, 0xb3, 0xd, 0x1e, 0xbe, 0x3e, 0xd7, 0xb7, 0xbd, 0xe, 0xd9, 0x81, 0x3c, 0x14, 0x10, 0x90, 0xbd, 0xf4, 0x45, 0x32, 0xbe, 0x11, 0x33, 0x2e, 0x3e, 0x8, 0x6f, 0x37, 0x3e, 0xac, 0x30, 0x1a, 0xbe, 0xd8, 0x6c, 0xaf, 0xbd, 0x3e, 0xc5, 0x80, 0x3d, 0x0, 0x80, 0x59, 0xbe, 0x5b, 0x6a, 0x10, 0x3d, 0x3, 0x51, 0xdf, 0xbd, 0xfb, 0xf9, 0x9, 0xbe, 0xb6, 0xa0, 0x15, 0xbe, 0xde, 0xfc, 0xec, 0xbd, 0xf0, 0x19, 0x29, 0x3d, 0x3, 0x23, 0xf, 0xbe, 0x64, 0xb9, 0x3c, 0xbd, 0x11, 0xd9, 0x77, 0xbe, 0xe1, 0x3b, 0x27, 0xbe, 0x38, 0x84, 0x7b, 0x3e, 0x4c, 0xba, 0x76, 0xbe, 0x67, 0xe5, 0x19, 0x3e, 0x89, 0x91, 0x51, 0x3e, 0x72, 0xc1, 0x88, 0xbd, 0xb9, 0xfe, 0x44, 0x3e, 0x41, 0x84, 0x6a, 0x3e, 0xf, 0x1, 0x54, 0x3e, 0x20, 0x31, 0x27, 0x3d, 0x4, 0xe, 0x5e, 0xbe, 0x22, 0xdf, 0x6c, 0x3d, 0x97, 0x27, 0x76, 0xbe, 0x20, 0xfb, 0x56, 0x3d, 0x34, 0x42, 0x45, 0x3e, 0x48, 0x95, 0x3f, 0xbe, 0x30, 0xa, 0x23, 0x3e, 0xea, 0x5, 0xed, 0xbd, 0x67, 0x89, 0xf6, 0x3d, 0xcf, 0xc6, 0x7, 0xbe, 0x4f, 0x6, 0x59, 0x3e, 0x7a, 0x28, 0x94, 0xbd, 0x72, 0xbd, 0x1c, 0xbe, 0x4e, 0x51, 0xf3, 0x3d, 0x17, 0xba, 0x37, 0x3e, 0x7f, 0x8f, 0xb, 0x3c, 0x10, 0x66, 0xb, 0xbe, 0x69, 0x7f, 0x3a, 0x3e, 0xb1, 0x41, 0xc3, 0xbd, 0xe6, 0xcb, 0x43, 0x3e, 0x40, 0xfe, 0x1, 0xbe, 0xe0, 0x2b, 0x41, 0x3d, 0xdd, 0x5d, 0x1d, 0xbc, 0x58, 0x36, 0x12, 0xbe, 0xb, 0xd1, 0x89, 0xbd, 0x3, 0xf, 0xfe, 0xbd, 0xb0, 0x75, 0x24, 0xbd, 0xf7, 0xb2, 0xf0, 0xbc, 0x75, 0x9, 0xb2, 0xbd, 0xd0, 0x28, 0x42, 0xbe, 0x2a, 0xc8, 0x3a, 0xbe, 0x98, 0x52, 0x4b, 0x3b, 0xdc, 0xa5, 0x21, 0xbe, 0x7c, 0x4d, 0x9e, 0x3d, 0x8c, 0x7c, 0x5e, 0x3e, 0x95, 0x31, 0x3a, 0xbe, 0x66, 0x91, 0x87, 0xbe, 0x33, 0xb2, 0xa5, 0xbd, 0xda, 0x26, 0x8c, 0x3c, 0xe3, 0xfe, 0xc7, 0x3d, 0x22, 0x44, 0x48, 0xbe, 0x50, 0xb6, 0x71, 0x3e, 0xfb, 0x78, 0xc1, 0xbd, 0x41, 0x28, 0xdb, 0x3d, 0x7d, 0x6e, 0x31, 0x3d, 0xb8, 0x6c, 0x94, 0x3d, 0x5a, 0x97, 0x60, 0x3e, 0x6d, 0x54, 0xa5, 0xbd, 0xee, 0x9, 0x8f, 0xbd, 0x16, 0x38, 0xcf, 0xbd, 0x20, 0x8f, 0x38, 0x3d, 0x78, 0x5d, 0x4, 0xbe, 0xf4, 0x91, 0x5, 0xbe, 0x8b, 0xc3, 0x1, 0xbe, 0xf3, 0xea, 0x62, 0xbe, 0x80, 0x49, 0x0, 0x3e, 0x8c, 0x47, 0x9d, 0xbc, 0x5a, 0x9f, 0xac, 0x3d, 0x5a, 0x1c, 0x43, 0x3e, 0x18, 0x3a, 0xb2, 0xbd, 0xe4, 0xf0, 0x4a, 0x3d, 0xe6, 0x1c, 0x8a, 0xbc, 0xc2, 0x77, 0xf9, 0x3d, 0x4e, 0xa1, 0xda, 0xbd, 0xe, 0xfc, 0x3a, 0xbd, 0x3e, 0x93, 0x45, 0xbd, 0x67, 0x2f, 0x2e, 0xbe, 0x40, 0x10, 0x4, 0x3e, 0xb8, 0x40, 0x25, 0x3e, 0xdc, 0xc9, 0xef, 0x3c, 0xbe, 0x9b, 0x2e, 0x3e, 0x16, 0xc6, 0x98, 0x3d, 0xaf, 0xc7, 0xda, 0xbd, 0x4, 0xd, 0x65, 0xbe, 0xdd, 0x87, 0x2, 0xbe, 0x49, 0xb8, 0x70, 0xbd, 0xc0, 0xca, 0xff, 0x3c, 0x8a, 0xc3, 0xc8, 0x3d, 0x94, 0x1a, 0xc, 0xbd, 0x50, 0xa1, 0xa2, 0x3d, 0xec, 0xf8, 0x23, 0xbe, 0xe7, 0x5a, 0x3b, 0xbe, 0xda, 0x36, 0x2d, 0x3e, 0x9e, 0x8d, 0x68, 0xbd, 0xa2, 0x6, 0x6d, 0xbe, 0x40, 0x8e, 0x7b, 0xbd, 0x30, 0xdb, 0x69, 0x3d, 0x8, 0xb3, 0xdf, 0x3d, 0xfc, 0xc8, 0xb4, 0x3d, 0x4e, 0x8a, 0xf0, 0x3d, 0x48, 0x6c, 0x13, 0xbe, 0xcb, 0xe9, 0x80, 0x3e, 0x36, 0x6f, 0xe6, 0x3d, 0x6, 0x26, 0x2f, 0x3e, 0xa, 0xac, 0xf0, 0xbd, 0xb3, 0x5, 0xbd, 0x3d, 0x42, 0x40, 0x69, 0x3d, 0xa8, 0x43, 0x3f, 0xbe, 0x56, 0x47, 0x67, 0xbe, 0xc5, 0x5f, 0x4f, 0xbe, 0x3a, 0x50, 0x76, 0x3d, 0x41, 0xd9, 0x4, 0x3e, 0xdb, 0x9d, 0xc, 0x3e, 0x94, 0x72, 0x99, 0xbd, 0x11, 0xed, 0x7d, 0x3e, 0x78, 0xab, 0xbd, 0xbd, 0xf0, 0x6, 0x4, 0xbd, 0xe7, 0x39, 0x77, 0x3b, 0x76, 0xbf, 0xa2, 0xbd, 0xe9, 0xa1, 0x82, 0xbd, 0xcd, 0x84, 0x4d, 0x3e, 0x87, 0x54, 0x80, 0x3e, 0xa9, 0xb3, 0x95, 0xbd, 0x38, 0x48, 0x83, 0x3e, 0xe8, 0xce, 0x56, 0xbe, 0xdc, 0x9a, 0xb1, 0x3d, 0x53, 0x7d, 0x98, 0x3d, 0x73, 0x4a, 0x22, 0xbe, 0xce, 0x28, 0xee, 0xbd, 0x0, 0xd0, 0x46, 0xbd, 0x39, 0x8e, 0x1, 0x3e, 0x45, 0xa7, 0x89, 0x3e, 0x85, 0xf2, 0x84, 0x3e, 0x32, 0x6c, 0x46, 0xbc, 0xa0, 0x6e, 0x7e, 0xbc, 0x49, 0xcc, 0x83, 0x3e, 0xb8, 0xb5, 0x1e, 0x3e, 0xd7, 0x7, 0x6c, 0xbc, 0xd, 0xcc, 0x9, 0xbc, 0x34, 0x91, 0xc8, 0xbc, 0xbe, 0x84, 0x3a, 0xbe, 0x80, 0xb7, 0xc9, 0xbd, 0x38, 0x44, 0xf5, 0xbd, 0xbc, 0x7c, 0x8d, 0x3d, 0x75, 0x8c, 0x18, 0x3d, 0x97, 0x32, 0xe7, 0xbd, 0x4a, 0xb5, 0x88, 0xbd, 0x35, 0x9e, 0xc5, 0xbd, 0xfa, 0x50, 0x6a, 0xbe, 0xd6, 0xd9, 0x50, 0xbe, 0xba, 0x35, 0x2, 0xbe, 0x67, 0x4b, 0x45, 0xbc, 0x1f, 0xf7, 0x9e, 0xbc, 0x2b, 0x45, 0xf5, 0xbd, 0x6c, 0x2, 0x36, 0x3e, 0x7d, 0x77, 0x56, 0xbd, 0x9, 0xfe, 0xc8, 0x3d, 0xf4, 0xd1, 0x71, 0xbd, 0xdb, 0x17, 0xcf, 0xbd, 0x58, 0xe8, 0x26, 0x3e, 0x67, 0x7b, 0x20, 0x3e, 0x40, 0x51, 0x66, 0x3d, 0xd1, 0x5f, 0x83, 0x3e, 0x35, 0x95, 0xd1, 0xbd, 0x10, 0x7f, 0x9d, 0xbd, 0xaf, 0x9c, 0xbe, 0x3c, 0x9f, 0xa2, 0x41, 0x3e, 0x9e, 0xa7, 0x5, 0x3e, 0x57, 0x17, 0x68, 0x3e, 0x1c, 0x43, 0x81, 0x3e, 0x10, 0xaa, 0x2f, 0xbe, 0x98, 0x2a, 0x4d, 0xbd, 0xde, 0xca, 0x78, 0x3e, 0x91, 0xdf, 0x3, 0xbe, 0xc3, 0xaf, 0x53, 0xbe, 0x2, 0x4d, 0x12, 0x3e, 0xa, 0xf9, 0x7f, 0x3c, 0xa8, 0x6a, 0x89, 0xbb, 0x15, 0xb0, 0x48, 0x3e, 0xc, 0x87, 0x59, 0xbd, 0x69, 0xe7, 0x2b, 0x3e, 0xcd, 0x95, 0x4e, 0xbe, 0xda, 0xb3, 0x15, 0x3e, 0x8c, 0x6, 0x8, 0xbe, 0x58, 0x2, 0x47, 0xbe, 0x5c, 0xe7, 0x5d, 0xbd, 0xb6, 0x65, 0x14, 0xbe, 0xa0, 0xb, 0x1b, 0x3e, 0x0, 0x42, 0x5b, 0xbc, 0xa2, 0x8, 0x19, 0xbe, 0xeb, 0xa4, 0x48, 0x3d, 0x2e, 0x3a, 0x8f, 0xbd, 0xa9, 0xe5, 0xdc, 0xbd, 0x94, 0x7, 0x72, 0x3e, 0xe, 0x1c, 0x97, 0xbd, 0xa9, 0xe2, 0x55, 0x3e, 0xf0, 0xa4, 0xfa, 0x3d, 0x11, 0xda, 0xca, 0xbd, 0x3f, 0xda, 0xf6, 0xbc, 0xb7, 0x74, 0x5f, 0x3e, 0x22, 0xfd, 0xdf, 0xbd, 0xe2, 0xf6, 0xfa, 0xbd, 0xe5, 0xf, 0xec, 0x3d, 0xc2, 0xea, 0xb, 0x3b, 0x71, 0x65, 0x2e, 0x3e, 0xcd, 0xec, 0xa6, 0xbd, 0x20, 0x17, 0x53, 0xbd, 0xa6, 0x89, 0x5e, 0xbe, 0xa1, 0x65, 0x34, 0xbe, 0xd9, 0x19, 0x58, 0xbe, 0xae, 0xf6, 0x6e, 0xbe, 0xf4, 0x5e, 0x13, 0xbd, 0xa, 0x1a, 0x2d, 0x3e, 0xa7, 0xd6, 0xa6, 0x3d, 0x3a, 0x6, 0x82, 0x3d, 0x2c, 0x23, 0x3c, 0x3e, 0x56, 0xfc, 0xa5, 0x3d, 0x28, 0x3c, 0x74, 0x3d, 0x0, 0x2f, 0x94, 0x3c, 0x46, 0xff, 0xef, 0x3d, 0x49, 0x6f, 0x80, 0xbe, 0xbf, 0xa1, 0x82, 0xbe, 0x1e, 0x94, 0x5a, 0x3d, 0xf8, 0x72, 0x19, 0x3e, 0x98, 0x67, 0x52, 0xbe, 0x50, 0x17, 0xe, 0xbd, 0x5a, 0x6f, 0xea, 0x3d, 0xce, 0x36, 0x47, 0xbe, 0x40, 0x39, 0x5e, 0xbe, 0x23, 0x27, 0x6f, 0xbd, 0xc, 0x65, 0x3a, 0x3e, 0xe, 0x81, 0xf5, 0xbc, 0x73, 0x1, 0xe3, 0x3d, 0xf5, 0x44, 0x5, 0x3e, 0xc0, 0x77, 0xb, 0xbd, 0xf9, 0x3f, 0x29, 0xbe, 0x5d, 0xe2, 0xe5, 0x3d, 0xa7, 0x6a, 0xe, 0x3e, 0x9c, 0x42, 0x1b, 0xbd, 0xcf, 0xbd, 0x62, 0x3e, 0xfd, 0x29, 0x15, 0x3e, 0x25, 0xc0, 0x4d, 0x3e, 0xd1, 0xf9, 0x4, 0x3e, 0x54, 0x29, 0x38, 0xbe, 0xe1, 0x38, 0x4, 0xbe, 0x63, 0x19, 0xbf, 0xbc, 0x15, 0x32, 0x1, 0xbe, 0xc9, 0xe9, 0x43, 0xbe, 0x5f, 0xa8, 0xf0, 0xbd, 0x1d, 0xc2, 0xe3, 0xbd, 0xb9, 0xb5, 0xfe, 0x3d, 0x70, 0x1d, 0x65, 0xba, 0x38, 0x87, 0xd8, 0x3d, 0x9b, 0x7c, 0xc3, 0xbc, 0xab, 0xf8, 0x72, 0x3d, 0x7e, 0x56, 0x9c, 0xbd, 0x8b, 0xc4, 0x69, 0x3e, 0xe0, 0xa9, 0x3f, 0xbe, 0xfa, 0x1c, 0x70, 0xbe, 0x89, 0x17, 0x68, 0xbe, 0x6d, 0x7c, 0x1c, 0xbe, 0x0, 0x80, 0x88, 0x3a, 0x91, 0xf0, 0x2d, 0xbd, 0x1d, 0x68, 0x7, 0x3c, 0x23, 0x76, 0x9d, 0x3c, 0xe4, 0x92, 0xe, 0xbe, 0x66, 0xf2, 0x5f, 0xbc, 0x76, 0x6f, 0x4a, 0xbd, 0x7c, 0x45, 0xdf, 0xbd, 0x8, 0x9d, 0x77, 0xbe, 0x80, 0x5d, 0x20, 0x3e, 0xc6, 0xda, 0x3b, 0x3e, 0xf1, 0xed, 0xc2, 0x3d, 0x66, 0x77, 0x86, 0xbd, 0x8b, 0xa7, 0x1c, 0x3e, 0x2d, 0xee, 0x32, 0x3e, 0x57, 0x1c, 0x38, 0x3d, 0x4c, 0xa8, 0x1c, 0x3d, 0xda, 0x8f, 0x4c, 0xbe, 0xde, 0x92, 0x6c, 0x3e, 0x8c, 0xf1, 0x97, 0x3d, 0x6c, 0x45, 0x17, 0xbe, 0x70, 0xb0, 0x5, 0x3d, 0x86, 0xa8, 0xf0, 0xbd, 0x97, 0x51, 0x61, 0xbe, 0xe, 0x70, 0x71, 0xbe, 0xd0, 0x8e, 0x45, 0xbe, 0x48, 0x41, 0xb3, 0xbd, 0xdf, 0x17, 0xe4, 0x3d, 0x24, 0xb2, 0x6f, 0x3e, 0xfc, 0x70, 0x6, 0xbd, 0x27, 0x16, 0x8f, 0x3d, 0x0, 0x94, 0x91, 0x3d, 0xa3, 0xee, 0x99, 0x3d, 0xc0, 0x21, 0xbc, 0x3d, 0x33, 0xf8, 0x3e, 0xbe, 0x17, 0xb4, 0x2a, 0x3e, 0xed, 0x74, 0x5e, 0x3e, 0x7a, 0x80, 0x45, 0xbe, 0x5a, 0x58, 0x5b, 0x3e, 0x1f, 0x37, 0x0, 0x3e, 0x51, 0x38, 0xa1, 0x3d, 0x5, 0xab, 0xe2, 0xbd, 0x9b, 0xd5, 0x2b, 0xbe, 0x4f, 0xe6, 0xea, 0xbd, 0x43, 0xe0, 0xce, 0x3d, 0x9b, 0x2b, 0x27, 0x3e, 0x5d, 0xf, 0xe, 0xbd, 0xe0, 0x41, 0x58, 0x3c, 0x61, 0x31, 0xd0, 0x3d, 0xa, 0x64, 0x69, 0x3e, 0xde, 0x3c, 0x89, 0xbe, 0xb3, 0x1f, 0xf, 0x3e, 0x46, 0x35, 0x4b, 0xbe, 0x33, 0x26, 0x5b, 0xbe, 0xa1, 0x39, 0xf0, 0xbb, 0xe0, 0x6e, 0x86, 0x3c, 0x52, 0x10, 0xd6, 0xbd, 0x31, 0x6a, 0xa2, 0x3b, 0x24, 0x68, 0x80, 0xbc, 0x91, 0x57, 0x56, 0x3e, 0x0, 0xf7, 0x5, 0x3e, 0x80, 0xbd, 0x41, 0x3e, 0xc, 0x1c, 0xad, 0xbc, 0x10, 0xbc, 0x55, 0x3d, 0x96, 0x65, 0x10, 0x3e, 0xeb, 0x81, 0x27, 0xbe, 0x11, 0x34, 0x73, 0x3d, 0x3c, 0x1e, 0x4d, 0xbe, 0xc3, 0xd8, 0xf1, 0x3d, 0x3b, 0xd3, 0x8, 0x3e, 0xd5, 0x75, 0x54, 0xbe, 0xd3, 0x46, 0xac, 0x3d, 0x2, 0x1b, 0xb, 0x3e, 0x30, 0x66, 0x3, 0xbd, 0x48, 0x9a, 0x4a, 0xbe, 0xed, 0x77, 0xc3, 0x3d, 0x91, 0x3f, 0x6a, 0x3e, 0xc2, 0x6c, 0x85, 0x3e, 0x64, 0x18, 0x89, 0xbc, 0x7f, 0x33, 0x86, 0x3e, 0xed, 0x49, 0xe3, 0xbc, 0xac, 0x6, 0x67, 0x3e, 0xc5, 0xef, 0x40, 0xbe, 0x1a, 0x34, 0x18, 0x3e, 0x58, 0xe5, 0xe, 0x3e, 0x20, 0x4d, 0xc, 0x3d, 0x7f, 0xa9, 0x5a, 0x3e, 0x45, 0xe2, 0x1, 0x3e, 0x12, 0x90, 0x82, 0x3d, 0x68, 0x9c, 0x5, 0xbe, 0x4, 0xa4, 0x2b, 0x3e, 0x6f, 0x96, 0x5e, 0xbe, 0x0, 0xda, 0x4a, 0x3c, 0x95, 0x1b, 0xc7, 0x3d, 0xc5, 0x6b, 0x2, 0x3e, 0xb0, 0xb5, 0xba, 0x3d, 0x1a, 0xf8, 0x10, 0xbe, 0x32, 0x87, 0x39, 0xbe, 0x46, 0xbf, 0x23, 0xbe, 0xc6, 0x12, 0x6f, 0x3e, 0x3c, 0x33, 0x81, 0x3d, 0x4e, 0xf5, 0x71, 0x3d, 0x61, 0xe5, 0x10, 0x3e, 0xd, 0xe5, 0x20, 0xbe, 0x71, 0x58, 0xa7, 0xbd, 0xde, 0x4b, 0x51, 0x3e, 0xac, 0xa3, 0xbb, 0x39, 0x46, 0xd9, 0xa6, 0xbd, 0x2f, 0x58, 0x6b, 0xbe, 0x23, 0xce, 0x64, 0x3e, 0xb4, 0x28, 0x3c, 0xbe, 0xeb, 0x9c, 0x53, 0x3e, 0xd3, 0xdc, 0xf6, 0xba, 0x76, 0xa2, 0x7c, 0x3e, 0x76, 0x53, 0x55, 0x3e, 0x91, 0x96, 0xec, 0xbd, 0xce, 0xfd, 0x3f, 0x3e, 0x12, 0xf5, 0x58, 0xbe, 0xbc, 0x78, 0x87, 0xbe, 0xd8, 0x63, 0x2d, 0xbe, 0x52, 0x38, 0x4f, 0x3e, 0x24, 0x87, 0xc1, 0x3d, 0x78, 0x7f, 0x20, 0x3e, 0xd4, 0x4, 0x13, 0x3d, 0xc0, 0xf0, 0x90, 0xbd, 0x71, 0xea, 0xfe, 0x3d, 0xbd, 0x9c, 0xa1, 0x3d, 0x8f, 0x83, 0xfd, 0x3d, 0x18, 0x7a, 0x31, 0x3d, 0x60, 0x8f, 0xa, 0xbd, 0xc5, 0xbb, 0x11, 0x3e, 0xc6, 0x3f, 0x41, 0xbe, 0xa4, 0x81, 0x99, 0x3d, 0x61, 0xd3, 0x16, 0x3e, 0x7b, 0x30, 0x7b, 0xbe, 0xf3, 0xde, 0x5, 0x3e, 0xdc, 0x7c, 0xbf, 0xbd, 0xcc, 0x0, 0x47, 0x3e, 0x4f, 0x89, 0x6f, 0xbe, 0xd0, 0xa7, 0x3b, 0xbe, 0xf1, 0x19, 0x36, 0x3e, 0xcb, 0xd, 0x14, 0xbe, 0x68, 0x1, 0xdb, 0xbd, 0xa3, 0x53, 0xec, 0x3c, 0x45, 0xd3, 0x71, 0xbe, 0xe, 0x90, 0x85, 0x3c, 0xbb, 0x2, 0xc5, 0xbd, 0x46, 0x2b, 0x82, 0x3b, 0x78, 0x14, 0xf6, 0x3d, 0x70, 0xfc, 0x46, 0xbe, 0x6e, 0x26, 0xa5, 0x3c, 0xa8, 0x10, 0x65, 0x3e, 0xd2, 0xde, 0x72, 0xbe, 0xe, 0xed, 0x0, 0xbe, 0x94, 0x58, 0x4d, 0x3e, 0x56, 0xb0, 0x1b, 0xbe, 0x98, 0x6, 0x11, 0x3e, 0x50, 0x9f, 0x4e, 0xbe, 0x9a, 0x20, 0x99, 0x3d, 0x40, 0xb0, 0x7a, 0xbe, 0x2c, 0x6, 0x90, 0xbc, 0xc0, 0x7b, 0xa8, 0x3c, 0xfe, 0xa7, 0xcf, 0x3c, 0x6e, 0x32, 0x1b, 0xbe, 0xf2, 0x45, 0x69, 0x3d, 0x6e, 0x28, 0x50, 0x3e, 0x9, 0x2a, 0x1d, 0xbe, 0x5, 0x2c, 0xe, 0x3e, 0x59, 0x5c, 0x40, 0x3d, 0x7e, 0x20, 0x20, 0xbe, 0xc3, 0xc0, 0x12, 0x3e, 0x8a, 0xb3, 0x4f, 0xbe, 0x64, 0x12, 0x79, 0x3d, 0xc6, 0x21, 0x55, 0x3e, 0xc6, 0xd6, 0x12, 0x3d, 0xe, 0x99, 0x17, 0xbe, 0x23, 0xf2, 0x65, 0x3e, 0x4, 0x3, 0x27, 0x3e, 0xda, 0x76, 0xa7, 0x3d, 0x8c, 0x62, 0x40, 0x3d, 0xa2, 0x70, 0x9, 0xbe, 0xe8, 0x39, 0x2b, 0xbe, 0x3b, 0x6a, 0x50, 0xbe, 0x48, 0x34, 0x56, 0x3e, 0x99, 0x86, 0x39, 0x3d, 0x1b, 0x3, 0x1f, 0x3e, 0xf1, 0x75, 0x31, 0x3e, 0xce, 0xf0, 0xc4, 0x3d, 0x10, 0xb2, 0x38, 0x3e, 0x8b, 0x52, 0x5c, 0xbe, 0x5, 0x63, 0xfa, 0xbc, 0x8e, 0x2c, 0x2, 0xbe, 0x49, 0xe7, 0x2e, 0x3d, 0x57, 0xa7, 0x21, 0x3e, 0xc6, 0xed, 0x58, 0xbe, 0xa9, 0xc4, 0x59, 0xbe, 0x44, 0x4a, 0x27, 0xbe, 0x2c, 0xae, 0xfe, 0x3d, 0x23, 0xc, 0x51, 0x3d, 0x9f, 0x92, 0xf1, 0xbd, 0xe6, 0x6b, 0x55, 0xbe, 0x40, 0x7c, 0x21, 0xbc, 0xee, 0x18, 0x99, 0xbd, 0x63, 0xb5, 0x40, 0x3d, 0xf5, 0xce, 0x8d, 0x3d, 0x2d, 0x52, 0x29, 0x3d, 0x4e, 0x85, 0x2d, 0xbe, 0x5b, 0x60, 0x0, 0xbe, 0x6e, 0x7a, 0xf1, 0x3d, 0x4a, 0xcd, 0x97, 0x3c, 0xfc, 0x15, 0x39, 0x3e, 0x24, 0xc, 0x7d, 0x3d, 0x21, 0x6a, 0xa9, 0x3c, 0x60, 0x8f, 0x9a, 0x3c, 0xd5, 0x11, 0x8a, 0x3e, 0xc8, 0x90, 0xf9, 0x3c, 0xc5, 0x44, 0x86, 0xbc, 0xd7, 0x24, 0x49, 0xbe, 0x40, 0x91, 0xc5, 0xbc, 0x4, 0x4, 0x5f, 0xbc, 0x4c, 0xa6, 0x3c, 0x3e, 0xef, 0x63, 0x1, 0xbe, 0x55, 0x69, 0xd, 0xbe, 0xb4, 0xaf, 0x3e, 0x3e, 0xe3, 0x95, 0x70, 0x3c, 0x86, 0xd6, 0x44, 0xbe, 0xad, 0x9, 0x77, 0xbc, 0xc5, 0xd3, 0x23, 0xbe, 0xd7, 0x91, 0xa7, 0x3d, 0x3b, 0xa5, 0x30, 0xbe, 0xb, 0x71, 0x7, 0xbd, 0xe0, 0x8c, 0x7c, 0xbd, 0xf1, 0x62, 0x86, 0x3e, 0x6a, 0xae, 0x51, 0x3a, 0x75, 0xa4, 0xd3, 0xbd, 0xf5, 0x12, 0xca, 0xbd, 0x43, 0x5b, 0x59, 0x3e, 0x79, 0x2a, 0x17, 0xbd, 0x77, 0xb8, 0x47, 0xbe, 0xbd, 0x2a, 0x5b, 0x3e, 0x85, 0x32, 0x4f, 0x3e, 0x5b, 0x1d, 0xa, 0x3d, 0x42, 0xaf, 0x37, 0x3e, 0x31, 0x31, 0xa8, 0xbd, 0x5e, 0x1, 0x87, 0x3c, 0xf, 0xea, 0x2f, 0xbd, 0xdc, 0x7d, 0x82, 0xbe, 0xc8, 0xd3, 0xec, 0x3d, 0xbf, 0x7, 0x50, 0x3d, 0x30, 0xc2, 0x74, 0xbd, 0x53, 0xc3, 0xe9, 0xbd, 0x49, 0x61, 0xd6, 0x3d, 0x10, 0xa7, 0xf, 0xbd, 0x88, 0x2f, 0x69, 0xbd, 0xbe, 0xb7, 0xc3, 0x3c, 0x9, 0x76, 0x58, 0xbe, 0x4c, 0xba, 0x6d, 0xbe, 0x57, 0x56, 0xcb, 0x3d, 0xdc, 0xc, 0x63, 0x3e, 0x9e, 0x5e, 0x1d, 0x3e, 0x61, 0x8e, 0x37, 0xbe, 0x3f, 0xfe, 0x24, 0xbb, 0x16, 0xc5, 0x3e, 0x3e, 0x9e, 0x3a, 0x6e, 0x3e, 0xb0, 0x8b, 0x48, 0xbd, 0xc8, 0x1f, 0xde, 0xbd, 0xb8, 0x41, 0x7c, 0xbe, 0x75, 0x95, 0x5a, 0x3d, 0x9c, 0x99, 0xf1, 0xbd, 0xc3, 0x7e, 0x5, 0xbd, 0xfe, 0x9f, 0x56, 0xbe, 0xfe, 0xdc, 0xff, 0x3d, 0xdd, 0x5f, 0x85, 0xbe, 0x41, 0xc, 0x0, 0x3e, 0x62, 0xfd, 0x20, 0x3e, 0xf9, 0x64, 0x63, 0x3e, 0x80, 0xb3, 0x97, 0x3d, 0x80, 0x60, 0x5e, 0x3e, 0x96, 0x55, 0xb3, 0x3c, 0xbf, 0xd6, 0x2a, 0x3d, 0x36, 0x51, 0x66, 0x3d, 0xef, 0x92, 0xe, 0xbe, 0xfc, 0x2c, 0x7e, 0xbe, 0xaa, 0x25, 0x65, 0xbe, 0x40, 0x2f, 0x6f, 0x3e, 0x4, 0xf3, 0xbc, 0xbc, 0xb4, 0xd8, 0x5f, 0xbe, 0x74, 0x7b, 0x5d, 0xbe, 0x35, 0x28, 0x25, 0x3e, 0xdf, 0xd, 0x18, 0x3e, 0x87, 0x3d, 0xe4, 0xbb, 0x99, 0x14, 0x85, 0xbd, 0xb7, 0x96, 0xdd, 0x39, 0xcf, 0xe, 0x68, 0xbe, 0x7a, 0x29, 0xba, 0x3d, 0x90, 0x27, 0x71, 0xbd, 0xd1, 0x92, 0x2e, 0x3e, 0x9d, 0x60, 0x90, 0x3d, 0x8c, 0xc6, 0x36, 0x3c, 0xd5, 0xe1, 0x58, 0xbe, 0xcc, 0xdf, 0x13, 0xbe, 0x34, 0x4a, 0x82, 0xbe, 0xc4, 0xcb, 0x77, 0xbe, 0xb2, 0x9d, 0xb6, 0x3d, 0xde, 0xbe, 0x60, 0xbd, 0x83, 0x77, 0x9c, 0xbd, 0xf2, 0x27, 0x5f, 0x3e, 0x7d, 0x1, 0x88, 0xbe, 0x4c, 0x45, 0x67, 0xbe, 0x6d, 0xbe, 0x9a, 0x3d, 0x3c, 0x37, 0x3f, 0x3e, 0x8, 0xc8, 0xe1, 0x3d, 0x84, 0x66, 0x68, 0xbd, 0xec, 0xca, 0x57, 0x3e, 0x67, 0x74, 0xbb, 0xbd, 0x17, 0x3, 0xd9, 0x3c, 0xe8, 0xc, 0xe9, 0xbd, 0xec, 0x4c, 0x83, 0xbe, 0x1d, 0x23, 0x15, 0x3e, 0x93, 0x2c, 0x52, 0x3e, 0xc3, 0x4b, 0xb8, 0x3b, 0x64, 0xc1, 0x55, 0x3e, 0x39, 0xff, 0x78, 0x3e, 0x78, 0x6c, 0x52, 0xbe, 0x57, 0x41, 0x4c, 0xbd, 0xd, 0x11, 0x83, 0xbe, 0xc7, 0x68, 0x6f, 0xbd, 0xd8, 0xe5, 0x2b, 0x3e, 0x78, 0x31, 0xa2, 0xbd, 0x40, 0x4, 0x32, 0x3c, 0xc4, 0xb5, 0x28, 0xbd, 0xdf, 0x57, 0x20, 0x3e, 0xa8, 0x4e, 0xd6, 0x3c, 0x73, 0xa3, 0x26, 0x3d, 0x1c, 0x94, 0x13, 0xbe, 0x6d, 0xfd, 0x55, 0xbe, 0xbf, 0x28, 0x81, 0x3c, 0x60, 0x81, 0x91, 0x3c, 0x49, 0x5f, 0x2e, 0xbd, 0x5c, 0x77, 0x85, 0xbd, 0xbe, 0xf3, 0x47, 0xbe, 0x48, 0x5d, 0x21, 0xbe, 0x63, 0x12, 0x80, 0xbc, 0x4b, 0x24, 0xb8, 0x3d, 0xe6, 0x7c, 0x4a, 0x3e, 0xa4, 0xc5, 0x10, 0xbd, 0xb0, 0x98, 0xd6, 0xbd, 0x65, 0xee, 0x5c, 0x3d, 0x90, 0xe0, 0xa7, 0x3d, 0x81, 0xf, 0x6a, 0xbe, 0x39, 0x81, 0xa5, 0xbd, 0x98, 0x5b, 0x62, 0xbe, 0x54, 0x1a, 0x29, 0xbd, 0xa3, 0xe2, 0x57, 0xbd, 0x9, 0xa1, 0x5d, 0xbe, 0x31, 0x5c, 0x4, 0xbd, 0x9e, 0xea, 0x55, 0xbd, 0x58, 0x3c, 0xf2, 0x3d, 0x81, 0xb1, 0x1d, 0xbe, 0x27, 0xb0, 0x18, 0xbe, 0x6b, 0xd6, 0x42, 0x3e, 0x3c, 0x4, 0xe5, 0x3d, 0xc5, 0xf3, 0x1, 0xbe, 0x79, 0x2, 0xf9, 0xbd, 0x88, 0xcf, 0x40, 0x3e, 0x6e, 0x1e, 0xc0, 0xbc, 0xa0, 0x7e, 0x49, 0xbd, 0xe1, 0x88, 0x21, 0xbc, 0xfb, 0x72, 0x87, 0x3d, 0x9c, 0x7c, 0x28, 0xbe, 0xbd, 0x4, 0xc3, 0x3d, 0x51, 0xad, 0xe9, 0x3c, 0x2e, 0x6c, 0xd2, 0x3d, 0xf6, 0x3d, 0x50, 0xbe, 0xc1, 0x96, 0x82, 0x3d, 0x80, 0xfe, 0xcc, 0xbc, 0x57, 0x5d, 0x2b, 0x3d, 0xce, 0xb3, 0x44, 0x3d, 0xd4, 0x34, 0x48, 0xbc, 0xca, 0xe2, 0x30, 0xbd, 0x38, 0xe2, 0x61, 0xbe, 0x1a, 0x93, 0x5a, 0x3e, 0x3b, 0xeb, 0x44, 0xbe, 0x65, 0xa4, 0x1d, 0xbd, 0xc5, 0x93, 0xd, 0xbe, 0x7f, 0x19, 0xf2, 0xbd, 0x0, 0x53, 0x16, 0x3d, 0x4e, 0xe7, 0x48, 0xbe, 0x44, 0x15, 0x2c, 0xbe, 0x28, 0x43, 0x74, 0xbd, 0x4c, 0xf9, 0x78, 0xbd, 0x2e, 0x4b, 0xdf, 0xbc, 0x18, 0xd7, 0xf, 0x3e, 0xfc, 0xb8, 0x22, 0xbe, 0x8a, 0x33, 0x46, 0x3e, 0x9e, 0xa7, 0x62, 0xbd, 0x18, 0xb2, 0x30, 0x3e, 0x49, 0xc4, 0x5a, 0xbe, 0xda, 0xa, 0x4f, 0x3e, 0x85, 0x6b, 0x14, 0xbe, 0x73, 0x6c, 0x9c, 0x3d, 0x17, 0xd9, 0x32, 0x3d, 0x34, 0x24, 0x8, 0xbe, 0x49, 0xc7, 0xc7, 0xbd, 0x9, 0x77, 0x0, 0xbe, 0x1c, 0xf4, 0x30, 0x3e, 0x1d, 0x6d, 0x30, 0xbe, 0xed, 0x29, 0x4b, 0x3d, 0x1a, 0x4, 0x4d, 0x3e, 0x39, 0x57, 0xde, 0x3d, 0x54, 0xd1, 0x2b, 0x3e, 0x72, 0x11, 0x1f, 0x3e, 0x30, 0xd1, 0x27, 0xbd, 0xa0, 0x41, 0xb, 0x3e, 0x1e, 0xfd, 0xc1, 0x3b, 0xb0, 0xbd, 0x60, 0xbd, 0xe4, 0x1c, 0x1a, 0xbe, 0xe0, 0x7b, 0x41, 0x3d, 0x90, 0x77, 0x76, 0x3e, 0x16, 0xc6, 0x14, 0x3e, 0x6f, 0x74, 0x34, 0xbe, 0x7, 0xba, 0xa4, 0x3c, 0x34, 0x40, 0x41, 0x3e, 0x10, 0xe8, 0x8d, 0x3d, 0x44, 0x17, 0xa3, 0xbc, 0xa3, 0x3a, 0x9, 0x3c, 0x6e, 0x8f, 0x3e, 0x3d, 0xa2, 0xbd, 0x45, 0x3d, 0x17, 0x7c, 0x3d, 0x3e, 0x6b, 0x66, 0x50, 0x3e, 0x1f, 0x2, 0x44, 0x3d, 0xf8, 0x3e, 0x1, 0x3e, 0x92, 0xf3, 0xc8, 0x3b, 0x32, 0xbd, 0xd, 0xbd, 0x4c, 0x7c, 0xd2, 0x3d, 0x37, 0x47, 0x83, 0xbc, 0x1, 0x3a, 0x9a, 0xbd, 0x3f, 0xd0, 0x79, 0x3e, 0x45, 0xe6, 0x53, 0x3e, 0x0, 0x13, 0xee, 0xbc, 0xc4, 0xdb, 0xa8, 0xbd, 0x32, 0x73, 0x50, 0xbe, 0xa2, 0xf9, 0xb6, 0xbd, 0xdc, 0x5d, 0x14, 0x3e, 0xc0, 0x6b, 0x6a, 0x3c, 0x6b, 0x4b, 0xaa, 0x3c, 0x2b, 0xfb, 0x31, 0x3e, 0xc4, 0x7d, 0x1a, 0x3e, 0xc5, 0xad, 0xf7, 0xbd, 0xc5, 0xdb, 0x97, 0x3c, 0x62, 0x5e, 0x27, 0x3d, 0x9, 0xb6, 0x2, 0xbd, 0xd2, 0xc9, 0x1f, 0xbd, 0x93, 0x9c, 0x40, 0xbe, 0x79, 0x9f, 0xc1, 0xba, 0xc5, 0x29, 0x15, 0x3d, 0x9c, 0x63, 0x61, 0x3e, 0x20, 0x29, 0xa8, 0x3c, 0xfd, 0xc4, 0xc3, 0xbd, 0x3b, 0xe7, 0x66, 0xbe, 0xa6, 0xe2, 0xca, 0x3d, 0xbc, 0xb8, 0x9b, 0xbd, 0xdd, 0xa5, 0x91, 0xbb, 0x24, 0xab, 0x56, 0x3e, 0x92, 0xbf, 0xb9, 0x3d, 0xea, 0x12, 0xf1, 0x3d, 0x7e, 0xb4, 0x63, 0xbe, 0x61, 0x69, 0x59, 0xbd, 0x5b, 0x5e, 0xfc, 0x3d, 0x10, 0xdf, 0xf2, 0xbd, 0x41, 0xde, 0xbd, 0xbb, 0x7d, 0x98, 0x6f, 0xbc, 0x95, 0xdb, 0x63, 0xbd, 0x57, 0x3b, 0x2b, 0xbe, 0x38, 0x1e, 0x78, 0x3e, 0x8, 0x8c, 0xce, 0x3d, 0x0, 0x13, 0xb5, 0x3b, 0x91, 0x4e, 0x42, 0xbe, 0x7b, 0x6, 0x57, 0xbe, 0x90, 0x83, 0xe, 0xbe, 0xe8, 0x40, 0xb3, 0x3d, 0x8c, 0x38, 0x52, 0x3e, 0xa3, 0x7d, 0x27, 0x3e, 0x4c, 0x10, 0x81, 0xbd, 0xe9, 0x12, 0x16, 0xbd, 0x65, 0xc5, 0xd6, 0x3d, 0x5d, 0x53, 0x51, 0xbe, 0x50, 0xa4, 0x3e, 0x3e, 0xf4, 0xb0, 0x26, 0xbd, 0xaf, 0xa9, 0xec, 0x3d, 0xf5, 0xd1, 0xb4, 0xbd, 0x23, 0xb9, 0x11, 0xbc, 0xff, 0xf1, 0x5e, 0x3e, 0x53, 0x5f, 0x57, 0xbe, 0xc0, 0xac, 0x10, 0xbe, 0x13, 0x16, 0xb1, 0xbc, 0xd9, 0xd8, 0x49, 0x3e, 0xbf, 0x72, 0x5c, 0xbd, 0x70, 0x72, 0xc8, 0x3b, 0x37, 0x82, 0x1, 0xbd, 0x8e, 0x6b, 0xfc, 0xbd, 0x7f, 0xa6, 0x1c, 0x3e, 0x38, 0x77, 0xf, 0xbe, 0x5c, 0xe0, 0x2c, 0x3e, 0x0, 0x94, 0x20, 0xba, 0x80, 0xcb, 0x57, 0x3d, 0x4f, 0x14, 0x70, 0xbe, 0x66, 0xff, 0x54, 0xbe, 0x8, 0x27, 0x87, 0xbd, 0xca, 0xe7, 0x68, 0x3e, 0xe0, 0x26, 0xd7, 0xbd, 0x55, 0xa3, 0xfa, 0xbd, 0x72, 0x58, 0x16, 0xbe, 0xdc, 0xab, 0xe5, 0xbc, 0x90, 0x3c, 0x89, 0xbd, 0x6d, 0xf2, 0xf6, 0x3d, 0x72, 0x1a, 0xa5, 0xbd, 0xbd, 0xd9, 0x55, 0xbe, 0xc0, 0x93, 0x9a, 0x3d, 0x38, 0xc8, 0x2c, 0xbe, 0xf0, 0x49, 0xa0, 0xbd, 0x98, 0x32, 0xf8, 0xbd, 0xe0, 0xe7, 0x86, 0x3d, 0x6a, 0x63, 0x5b, 0xbe, 0xde, 0xc4, 0x40, 0xbd, 0x36, 0xa, 0xaf, 0x3c, 0x20, 0x1c, 0xce, 0xbd, 0xf0, 0x51, 0x1, 0xbc, 0x2a, 0xcb, 0x3e, 0x3e, 0xc0, 0xd8, 0x32, 0xbe, 0x68, 0x71, 0x8a, 0x3d, 0xd7, 0xad, 0xf3, 0x3b, 0xe8, 0x5f, 0x10, 0xbe, 0xf8, 0xe7, 0x1f, 0x3e, 0xd1, 0xc9, 0x1a, 0xbe, 0xf7, 0xac, 0xb9, 0x3d, 0xd1, 0x3f, 0x9, 0x3e, 0xc7, 0x94, 0x23, 0xbe, 0x10, 0xea, 0x4, 0xbd, 0x20, 0x70, 0x16, 0xbd, 0x0, 0xf9, 0x9e, 0x3d, 0x38, 0xd8, 0x6c, 0xbe, 0xd5, 0xf, 0xcc, 0xbd, 0x84, 0xdd, 0x3b, 0x3e, 0x19, 0xaa, 0xfa, 0xbd, 0xa2, 0xf9, 0x60, 0xbe, 0x90, 0xbe, 0x0, 0xbd, 0xe4, 0x3b, 0xc9, 0x3d, 0x38, 0x46, 0x5f, 0x3d, 0x20, 0xa8, 0x88, 0xbd, 0x70, 0x88, 0x26, 0xbe, 0xc0, 0xac, 0xd3, 0xbc, 0x34, 0xe0, 0x2f, 0xbe, 0xe5, 0x95, 0xc4, 0x3d, 0xcb, 0x8a, 0x0, 0xbe, 0xa5, 0x6e, 0x83, 0xbd, 0xec, 0x4c, 0x7, 0xbe, 0x75, 0xba, 0xf, 0xbc, 0xc8, 0xf3, 0x4c, 0x3e, 0x3c, 0x2d, 0xf4, 0x39, 0xd4, 0xbc, 0xcb, 0xbd, 0xa0, 0x76, 0x70, 0x3d, 0x1, 0xb0, 0x5f, 0x3e, 0x60, 0x2, 0x15, 0x3e, 0xfb, 0x22, 0x33, 0xba, 0x13, 0xe9, 0x52, 0xbe, 0xf4, 0xbf, 0x14, 0x3e, 0x60, 0x21, 0x60, 0x3e, 0x4, 0xa7, 0x1f, 0xbe, 0x68, 0x6, 0xcd, 0xbb, 0x27, 0x86, 0x2b, 0xbe, 0x23, 0x2c, 0xd8, 0x3d, 0x90, 0xc6, 0x95, 0x3d, 0x15, 0x8f, 0xf, 0xbe, 0xed, 0x2c, 0x1a, 0x3d, 0x6b, 0xd, 0x16, 0xbd, 0xf1, 0xae, 0x7, 0xbd, 0x4f, 0xec, 0x2a, 0xbe, 0xe5, 0x39, 0x9e, 0x3d, 0xee, 0x4, 0xa0, 0x3b, 0x94, 0x3b, 0x6b, 0x3e, 0x34, 0x5, 0xe6, 0x3d, 0x99, 0x67, 0x82, 0xbd, 0xb2, 0x8f, 0xc5, 0xbd, 0x40, 0x26, 0xe7, 0x3d, 0xe0, 0xf2, 0xd6, 0x3d, 0x33, 0x37, 0x14, 0xbe, 0xb6, 0x15, 0x9, 0xbd, 0xf0, 0x63, 0xfc, 0x3c, 0x4e, 0x5a, 0x15, 0xbe, 0xb8, 0x59, 0x2, 0x3e, 0xf8, 0xef, 0x82, 0x3b, 0xbc, 0x8f, 0xf, 0x3e, 0xff, 0x1d, 0x1b, 0xbd, 0x2e, 0x4f, 0xa9, 0xbd, 0xac, 0xdc, 0x9, 0x3e, 0xe2, 0x5b, 0xca, 0xbc, 0xb8, 0x6f, 0x31, 0xbe, 0x49, 0x14, 0x73, 0x3e, 0x7c, 0xc6, 0x12, 0x3e, 0x81, 0x60, 0x4e, 0xbd, 0x6d, 0xa0, 0x50, 0x3d, 0x20, 0xc1, 0xe9, 0x3d, 0x9, 0xd4, 0x89, 0xbd, 0x5c, 0xcf, 0x43, 0x3e, 0xfc, 0xdf, 0x44, 0x3e, 0xce, 0x33, 0x6c, 0x3c, 0xe8, 0x9b, 0xaf, 0x3d, 0xd7, 0xbc, 0x7c, 0xbe, 0xfa, 0x9, 0x22, 0x3e, 0x4a, 0x5e, 0x5a, 0xbe, 0x1b, 0x90, 0x50, 0xbe, 0x23, 0xfa, 0x85, 0xbd, 0xa7, 0x54, 0x13, 0x3e, 0xa6, 0x8, 0x29, 0x3c, 0xa, 0x55, 0x52, 0x3d, 0xc0, 0xd7, 0x7c, 0xbc, 0xea, 0x22, 0x3e, 0xbe, 0x8e, 0xc7, 0xa0, 0xbd, 0x7b, 0xed, 0x3, 0xbe, 0x95, 0x16, 0x5f, 0x3e, 0x50, 0x67, 0x1c, 0xbe, 0xa5, 0xf5, 0x14, 0x3e, 0xf1, 0x66, 0xe, 0x3e, 0x4b, 0xb1, 0x22, 0xbe, 0xd6, 0x3b, 0x30, 0xbe, 0x61, 0x86, 0x2e, 0xbb, 0x68, 0xf5, 0x91, 0x3d, 0xdb, 0xec, 0xad, 0xbd, 0x8c, 0xb2, 0x51, 0xbe, 0xf5, 0xbf, 0xc7, 0x3c, 0x60, 0x7f, 0x4, 0x3d, 0x36, 0x60, 0xc6, 0x3a, 0xea, 0x14, 0xa9, 0xbd, 0x94, 0xae, 0x87, 0xbd, 0x8b, 0xeb, 0xb2, 0x3c, 0x84, 0x3, 0x4e, 0xbe, 0x52, 0x9c, 0x9b, 0x3d, 0x2c, 0xd0, 0x8e, 0xbd, 0xb2, 0x8c, 0x38, 0x3e, 0xb8, 0xc4, 0x5b, 0xbe, 0x36, 0xe5, 0x68, 0xbe, 0x1c, 0x14, 0x74, 0xbe, 0xdb, 0x30, 0x50, 0xbe, 0xfd, 0x68, 0x61, 0xbe, 0x53, 0xa1, 0x22, 0x3e, 0xdb, 0x4f, 0x6c, 0x3d, 0x8c, 0xf7, 0x3c, 0x3c, 0x60, 0xd6, 0xb4, 0xbc, 0x38, 0xde, 0x9, 0xbe, 0x43, 0x7e, 0x49, 0x3d, 0xbc, 0x35, 0xee, 0xbd, 0x9e, 0x3a, 0x82, 0xbe, 0x53, 0xfb, 0xe, 0xbd, 0x26, 0x2a, 0x6c, 0xbe, 0xf0, 0xff, 0x35, 0x3e, 0xc8, 0x56, 0xd0, 0xbd, 0xb, 0xb1, 0x52, 0xbe, 0x27, 0xfd, 0x6a, 0x3e, 0x49, 0xa3, 0x29, 0xbe, 0x4, 0x60, 0xe2, 0xbd, 0xa8, 0xe7, 0x6, 0x3e, 0xef, 0x4d, 0xf7, 0xbc, 0xc6, 0xa9, 0x16, 0x3e, 0x95, 0x14, 0x3a, 0xbe, 0xf1, 0x41, 0x47, 0x3e, 0x48, 0x44, 0x9, 0x3e, 0x4d, 0x7a, 0x1a, 0x3d, 0xe0, 0x47, 0x66, 0xbe, 0xe3, 0xaa, 0x7, 0x3e, 0x6a, 0xd8, 0x4f, 0xbe, 0xf4, 0xc4, 0x11, 0x3e, 0x44, 0x6f, 0x6a, 0x3e, 0xa9, 0x1c, 0x62, 0x3e, 0x56, 0x74, 0x5f, 0x3c, 0x94, 0x14, 0xac, 0xbd, 0x57, 0xbc, 0x14, 0x3e, 0x36, 0x80, 0x39, 0x3e, 0x6c, 0x78, 0xb2, 0xbd, 0xf8, 0x72, 0x35, 0x3e, 0x5c, 0x6e, 0x2a, 0x3e, 0x56, 0xaa, 0x32, 0x3e, 0x62, 0x16, 0x83, 0xbd, 0xaf, 0x67, 0x3e, 0x3e, 0x2e, 0x9d, 0x23, 0x3e, 0x20, 0x3e, 0x96, 0xbc, 0x1b, 0xc, 0x27, 0xbe, 0xdc, 0xf, 0x2f, 0x3c, 0xee, 0xc, 0x3b, 0x3e, 0x81, 0x3f, 0xf1, 0xbd, 0x9d, 0x48, 0x4b, 0xbe, 0x31, 0xd8, 0x72, 0xbe, 0xf, 0xf0, 0x63, 0x3d, 0x80, 0xe5, 0xf6, 0xbc, 0x85, 0xbd, 0x8e, 0x3d, 0x14, 0x12, 0x4b, 0x3e, 0x66, 0x9b, 0x60, 0x3e, 0xd, 0xd1, 0x8, 0x3c, 0x83, 0x21, 0x1b, 0xbd, 0x3, 0x69, 0x52, 0x3d, 0x60, 0xb1, 0x9f, 0xbc, 0xea, 0x43, 0xc, 0x3e, 0x24, 0xfe, 0x13, 0x3e, 0x27, 0xf7, 0xe5, 0x3d, 0xf3, 0x67, 0x20, 0x3e, 0x82, 0x3d, 0x30, 0xbe, 0xb, 0xf5, 0x6f, 0x3e, 0xaa, 0x55, 0x9e, 0x3d, 0x6e, 0xa4, 0xac, 0x3d, 0x16, 0x30, 0x5c, 0x3e, 0x6d, 0x94, 0x47, 0xbc, 0x92, 0x3e, 0x4d, 0xbe, 0x14, 0x56, 0x1c, 0xbe, 0x54, 0x59, 0x45, 0xbe, 0x4f, 0x46, 0xdf, 0xbc, 0x67, 0x8d, 0xec, 0x3d, 0x8f, 0xd6, 0x12, 0x3e, 0xd4, 0x72, 0x60, 0xbd, 0x5d, 0x3b, 0x2, 0x3d, 0x16, 0xb6, 0x18, 0x3e, 0x80, 0x50, 0x37, 0xbe, 0xd, 0x66, 0x15, 0x3e, 0xc6, 0xec, 0xca, 0x3d, 0xe0, 0x73, 0xe4, 0x3c, 0xec, 0x5d, 0xf8, 0xbd, 0x10, 0x1a, 0xea, 0xbd, 0x81, 0x60, 0xae, 0x3d, 0xeb, 0xdc, 0xb, 0xbe, 0xd9, 0x54, 0x86, 0x3d, 0xf3, 0xc, 0x7c, 0xbe, 0xa8, 0x86, 0x4d, 0x3e, 0xc, 0xe8, 0x13, 0xbe, 0x58, 0x7b, 0xb6, 0x3d, 0xbc, 0x36, 0xf4, 0x3d, 0xc8, 0xcc, 0x29, 0xbe, 0x8, 0x5, 0x4b, 0xbe, 0x66, 0x3, 0x55, 0x3e, 0x72, 0x3a, 0x4b, 0xbe, 0x8e, 0xcc, 0xc1, 0xbd, 0xb8, 0x78, 0x13, 0xbe, 0x14, 0x9c, 0x43, 0xbe, 0x6f, 0x56, 0x18, 0x3e, 0xf0, 0x30, 0xcd, 0x3d, 0x27, 0x26, 0x33, 0x3e, 0x9b, 0xe8, 0x62, 0xbd, 0x95, 0xb6, 0x60, 0x3d, 0x89, 0x3c, 0x5a, 0xbd, 0x15, 0x3c, 0x26, 0xbe, 0x4, 0x1d, 0x5f, 0xbd, 0x47, 0xf5, 0x39, 0xbe, 0xd2, 0xac, 0x19, 0xbe, 0x56, 0xf5, 0x22, 0x3e, 0x14, 0x95, 0x5f, 0xbd, 0xb8, 0x9c, 0xd3, 0x3d, 0xd3, 0x32, 0xcc, 0x3d, 0xb0, 0xa3, 0x58, 0xbe, 0x1a, 0xba, 0x82, 0xbc, 0xaa, 0x5f, 0x31, 0x3c, 0x3e, 0xc0, 0x22, 0xbd, 0xf8, 0xe5, 0x3, 0xbe, 0xb4, 0xef, 0xb4, 0xbc, 0x50, 0x59, 0xc6, 0x3d, 0x26, 0x6e, 0x27, 0x3d, 0x17, 0xda, 0x11, 0xbe, 0xd8, 0xe5, 0xf7, 0x3d, 0xcf, 0x24, 0xbb, 0x3d, 0xb4, 0xf9, 0x8e, 0x3d, 0x1b, 0x8, 0xb5, 0x3d, 0xde, 0x5f, 0x18, 0xbe, 0x81, 0x6c, 0x3, 0x3e, 0x71, 0xf5, 0x99, 0xbd, 0x6f, 0x1c, 0x59, 0xbe, 0xcc, 0x9b, 0x80, 0xbe, 0x5b, 0x43, 0x1c, 0xbe, 0xe7, 0xf8, 0x3c, 0x3e, 0x9b, 0xa3, 0x84, 0xbd, 0x98, 0xe7, 0x25, 0xbe, 0x0, 0x8d, 0xf9, 0x3c, 0x5a, 0x5a, 0xd0, 0xbd, 0x95, 0x6e, 0x23, 0x3d, 0x70, 0x57, 0x5d, 0x3e, 0x63, 0xc0, 0xb5, 0x3a, 0x6c, 0x9f, 0x5d, 0x3e, 0xbc, 0x6d, 0xc4, 0x3d, 0xaf, 0xe8, 0xf8, 0xbd, 0x98, 0x9b, 0xfe, 0xbd, 0xa8, 0xa9, 0x23, 0x3e, 0x65, 0x31, 0x2e, 0x3d, 0x58, 0x8e, 0x14, 0x3e, 0x40, 0x12, 0x32, 0x3e, 0x15, 0x8e, 0x6b, 0xbe, 0x35, 0x44, 0x32, 0xbd, 0x7d, 0x65, 0xba, 0xbd, 0x7f, 0x6c, 0x2, 0xbe, 0xb8, 0x21, 0x7c, 0x3e, 0xbd, 0x20, 0xab, 0xbd, 0x14, 0xa3, 0x5a, 0x3e, 0x49, 0x7e, 0x73, 0xbe, 0xb0, 0x61, 0xee, 0xbd, 0xc0, 0xea, 0xea, 0xbc, 0x98, 0xef, 0x42, 0xbe, 0x2d, 0x4d, 0x31, 0xbe, 0x74, 0x2e, 0x7b, 0xbe, 0xa0, 0x85, 0x86, 0xbc, 0xff, 0x26, 0x2, 0xbe, 0x4c, 0x3f, 0x47, 0x3e, 0x11, 0xc8, 0x3f, 0x3d, 0x23, 0xed, 0x4c, 0xbe, 0x4c, 0xf0, 0x33, 0xbe, 0x4b, 0xfe, 0x82, 0xbe, 0x65, 0x22, 0x26, 0x3d, 0x86, 0x29, 0x12, 0x3d, 0x33, 0xe1, 0xcb, 0xbc, 0x72, 0x94, 0xb, 0xbe, 0x80, 0x7c, 0xb9, 0xbd, 0x1e, 0x7b, 0x25, 0x3e, 0x52, 0x3e, 0xe3, 0x3d, 0x1e, 0x90, 0x83, 0xbd, 0x5f, 0x49, 0x73, 0xbe, 0xb2, 0x8d, 0xa, 0x3b, 0xc0, 0x4d, 0x36, 0xbe, 0x8, 0xdb, 0xeb, 0x3d, 0x4d, 0x80, 0x72, 0x3e, 0x70, 0x4f, 0xb7, 0xbd, 0xc, 0x5, 0x51, 0x3e, 0x52, 0x88, 0x1b, 0x3d, 0x1c, 0xb0, 0x64, 0x3e, 0xb5, 0xd3, 0xc6, 0x3d, 0xdc, 0xaa, 0x3e, 0xbe, 0x35, 0xc2, 0x15, 0x3e, 0x9c, 0x6a, 0xd8, 0xbd, 0x44, 0x53, 0xe4, 0xbd, 0x83, 0xe8, 0x18, 0xbe, 0xe1, 0x29, 0x12, 0x3d, 0xbb, 0x41, 0x47, 0x3e, 0x41, 0x5c, 0x97, 0xbc, 0x9b, 0xdc, 0x49, 0x3e, 0xe7, 0xa9, 0x7d, 0xbd, 0x4c, 0x2b, 0x17, 0x3e, 0x1f, 0xe2, 0x4e, 0x3e, 0xca, 0x2a, 0xd, 0xbb, 0x8, 0xb1, 0xe9, 0xbd, 0xca, 0xe6, 0x54, 0xbd, 0xd3, 0x97, 0x42, 0x3e, 0x9e, 0xfd, 0x17, 0xbe, 0x7b, 0xec, 0x10, 0x3e, 0x81, 0x50, 0x2c, 0xbe, 0x5a, 0x73, 0x21, 0xbe, 0x85, 0xbd, 0x50, 0xbd, 0x84, 0xb6, 0x22, 0xbe, 0x3a, 0x5e, 0xc2, 0xbd, 0x67, 0x6a, 0x17, 0x3e, 0xcb, 0x4, 0x2a, 0x3d, 0x60, 0x54, 0xfa, 0x3c, 0xf7, 0x74, 0x46, 0x3e, 0x9a, 0x8f, 0x29, 0xbe, 0x7d, 0x58, 0x1c, 0xbd, 0x1a, 0xec, 0x3c, 0x3e, 0xcc, 0xa8, 0x76, 0x3e, 0xc1, 0xb8, 0x33, 0xbe, 0xc8, 0x2d, 0x9b, 0xbd, 0x34, 0x46, 0x34, 0x3a, 0x99, 0xef, 0xf, 0xbe, 0xc0, 0x11, 0x5, 0x3d, 0x14, 0x2c, 0xdd, 0xbc, 0xa7, 0x33, 0x33, 0x3e, 0x6d, 0x71, 0xee, 0xbd, 0x1b, 0xfa, 0x42, 0xbe, 0x88, 0x23, 0x5c, 0xbd, 0xc0, 0xa5, 0xfe, 0xbd, 0xaf, 0xdc, 0x67, 0xbe, 0xc5, 0xc2, 0x6, 0xbe, 0x64, 0x81, 0xed, 0xbc, 0x5e, 0xbb, 0x3c, 0x3d, 0x6c, 0x58, 0x82, 0x3e, 0xde, 0x54, 0x16, 0x3e, 0x68, 0xf5, 0x4b, 0x3e, 0xe3, 0xe5, 0xbc, 0xbd, 0x5c, 0x2a, 0x78, 0x3e, 0xb0, 0x9c, 0x74, 0x3e, 0x5e, 0x51, 0x56, 0xbe, 0xc2, 0x58, 0x84, 0xbc, 0x83, 0x99, 0x88, 0x3e, 0xaa, 0x17, 0xbb, 0xbd, 0x64, 0x7a, 0x49, 0xbe, 0xfe, 0x8e, 0x7, 0x3d, 0x1f, 0x9e, 0x53, 0xbd, 0xa0, 0x6e, 0xdf, 0xbd, 0x4b, 0xd0, 0x3c, 0x3e, 0x1, 0xc7, 0x0, 0x3e, 0x2c, 0xe7, 0x2f, 0x3e, 0x56, 0xf, 0x64, 0xbe, 0x2c, 0xfe, 0x5b, 0x3e, 0x39, 0x7, 0x5d, 0x3e, 0x62, 0xc, 0x89, 0x3e, 0xe9, 0xd6, 0x9, 0x3d, 0x85, 0xa2, 0x47, 0x3e, 0xcd, 0x6c, 0x20, 0x3e, 0x36, 0x8c, 0x4f, 0x3e, 0xa5, 0x95, 0xbe, 0x3d, 0xbb, 0x6c, 0xca, 0x3d, 0xc4, 0x4d, 0x28, 0x3e, 0x35, 0x41, 0xab, 0xbd, 0x96, 0x9d, 0xc2, 0x3d, 0xba, 0xf0, 0x4b, 0x3e, 0x4, 0xce, 0x9, 0x3e, 0xfb, 0xfd, 0x59, 0x3e, 0xcf, 0x1f, 0x1, 0xbe, 0x84, 0xb0, 0xde, 0xbc, 0xd7, 0x9a, 0xcb, 0x3c, 0xa, 0x9c, 0x84, 0xbd, 0xc4, 0xbb, 0x7, 0xbe, 0x7d, 0x53, 0x7f, 0x3e, 0xc5, 0x1c, 0x45, 0x3b, 0x3d, 0x31, 0x2c, 0x3e, 0xa4, 0xc3, 0xf8, 0x3d, 0x75, 0x8a, 0x14, 0x3c, 0x10, 0x3d, 0xff, 0x3d, 0xcb, 0xaf, 0xb, 0x3d, 0x28, 0x9b, 0xfc, 0xbd, 0x34, 0xe3, 0x3c, 0x3e, 0x7b, 0x78, 0xcb, 0x3d, 0x70, 0x70, 0x16, 0x3d, 0x90, 0x7c, 0x9d, 0x3b, 0xa4, 0x3b, 0xd, 0x3e, 0x52, 0x8b, 0x60, 0x3e, 0x73, 0xa9, 0x75, 0x3e, 0xd0, 0xde, 0x2c, 0x3e, 0x7c, 0x40, 0x5a, 0x3e, 0xf4, 0x32, 0x1c, 0x3e, 0xaf, 0x39, 0x43, 0xbe, 0x6f, 0xec, 0x3, 0xbe, 0x7e, 0x43, 0x41, 0xbe, 0x7d, 0x3e, 0x4c, 0xbd, 0x1, 0x9, 0x96, 0x3d, 0xba, 0x7, 0x56, 0x3e, 0x2, 0x62, 0x56, 0x3d, 0xd5, 0xd5, 0x3b, 0xbd, 0x97, 0xea, 0x9b, 0x3c, 0x3f, 0x64, 0x53, 0xbd, 0x82, 0xb8, 0x3a, 0xbe, 0xf7, 0x4f, 0x4, 0x3e, 0x80, 0xb2, 0x22, 0xbc, 0x8, 0xa3, 0x82, 0x3e, 0x76, 0x3, 0x83, 0x3e, 0xf1, 0x26, 0x35, 0x3e, 0x2, 0x98, 0xe4, 0xbd, 0x53, 0x8e, 0x21, 0x3d, 0x8f, 0x81, 0x77, 0x3b, 0x3f, 0xf2, 0xd1, 0xbd, 0x52, 0xea, 0x1d, 0x3e, 0x38, 0x44, 0x54, 0x3e, 0x39, 0x5f, 0x38, 0x3e, 0x3c, 0xd, 0xb1, 0x3d, 0xb2, 0x3, 0xff, 0xbd, 0x61, 0x37, 0x7a, 0x3e, 0x58, 0x68, 0xf, 0xbe, 0x20, 0x5a, 0x9a, 0x3d, 0xfa, 0xb5, 0x58, 0x3d, 0xe, 0xaa, 0x71, 0x3e, 0x3f, 0x3d, 0x32, 0xbd, 0xfd, 0x68, 0xb3, 0xbc, 0x91, 0x85, 0x8e, 0xbd, 0xbc, 0x94, 0x1d, 0x3e, 0xb0, 0xc8, 0x75, 0xbd, 0xba, 0xd1, 0x73, 0xbb, 0x86, 0x94, 0x5d, 0x3e, 0xe0, 0x84, 0x4d, 0xbe, 0x65, 0x89, 0x7e, 0xbd, 0xf0, 0x57, 0x3c, 0xbd, 0x38, 0x4c, 0x2d, 0x3e, 0x95, 0x79, 0xff, 0x3d, 0x60, 0x6, 0x94, 0xbc, 0x19, 0x37, 0x9, 0xbe, 0x1a, 0x59, 0x7d, 0x3e, 0xdd, 0x9e, 0x58, 0xbe, 0x77, 0xd8, 0x86, 0x3d, 0xd5, 0xb2, 0x31, 0x3d, 0xa0, 0x8c, 0x11, 0x3e, 0x3f, 0xcb, 0x6, 0xbe, 0xff, 0x9d, 0x3, 0xbe, 0x40, 0x2d, 0xf0, 0x3d, 0x21, 0x54, 0xf9, 0x3d, 0xb1, 0x86, 0xe1, 0xbd, 0x9e, 0x32, 0x7d, 0xbd, 0x40, 0x27, 0x42, 0x3e, 0x58, 0x18, 0xc3, 0x3d, 0x78, 0xaa, 0x6, 0xbd, 0x20, 0xd, 0xeb, 0x3c, 0xd3, 0x2b, 0xde, 0xbd, 0xe5, 0x31, 0x48, 0xbc, 0x10, 0xbc, 0x2, 0x3d, 0x4b, 0xf8, 0xdc, 0x3d, 0x2c, 0xba, 0xee, 0x3d, 0xd, 0x57, 0x45, 0xbe, 0xee, 0x4c, 0x52, 0xbd, 0xe8, 0x18, 0x78, 0x3e, 0x3c, 0x35, 0x71, 0xbd, 0xb1, 0x89, 0xf3, 0xbd, 0x68, 0x46, 0x93, 0xbd, 0xeb, 0x1c, 0x39, 0x3e, 0x44, 0x51, 0x55, 0x3e, 0x72, 0x2b, 0x8e, 0x3d, 0x7d, 0xf0, 0x60, 0x3e, 0x54, 0xfd, 0x26, 0x3e, 0x8, 0x38, 0x4d, 0xbe, 0xf0, 0xf8, 0x75, 0xbe, 0x9b, 0xec, 0x46, 0x3e, 0x94, 0xdf, 0x58, 0x3e, 0x5d, 0x6c, 0x5d, 0xbe, 0x5f, 0x40, 0xdd, 0x3c, 0x27, 0xc5, 0xd3, 0xbd, 0x5c, 0x5a, 0x5f, 0x3c, 0x6a, 0xd1, 0x5b, 0x3e, 0x86, 0x5a, 0x32, 0xbd, 0x70, 0x9, 0x7b, 0xbe, 0xc, 0x6d, 0x1b, 0x3d, 0x4d, 0x29, 0xaf, 0x3d, 0xc8, 0x39, 0x50, 0xbe, 0x1a, 0x46, 0x27, 0x3e, 0xa8, 0x87, 0x36, 0x3e, 0xfc, 0x16, 0xe3, 0xbd, 0x44, 0x46, 0xdc, 0xbd, 0xf8, 0x16, 0x4e, 0x3d, 0x72, 0x8d, 0xe, 0x3e, 0x37, 0x1f, 0x29, 0xbd, 0x2d, 0x4e, 0xec, 0xbc, 0x82, 0x1f, 0x98, 0xbd, 0x63, 0x33, 0x52, 0xbe, 0xf8, 0xe0, 0x9, 0x3e, 0xcc, 0x2a, 0xd, 0x3e, 0xef, 0xc, 0x86, 0x3e, 0x9b, 0x5, 0x57, 0xbe, 0x20, 0x33, 0x6f, 0x3e, 0x23, 0x3a, 0x2f, 0x3e, 0xe4, 0x66, 0x7c, 0xbd, 0x60, 0x89, 0x27, 0xbe, 0xb8, 0x99, 0xac, 0x3d, 0x0, 0x35, 0x4f, 0x3e, 0x92, 0x6d, 0x9f, 0xbd, 0x32, 0x85, 0x29, 0x3d, 0x8a, 0x3, 0x25, 0xbe, 0xd1, 0xdf, 0x1e, 0xbe, 0x1d, 0x58, 0x1, 0x3e, 0x52, 0xcf, 0xb, 0xbe, 0x80, 0xa5, 0xda, 0xbd, 0x82, 0xf3, 0xa0, 0xbd, 0x4c, 0x1f, 0x1b, 0x3e, 0x75, 0xb6, 0xc3, 0x3d, 0x6a, 0x4e, 0x3b, 0xbd, 0x64, 0x3d, 0x2c, 0xbe, 0xc7, 0x91, 0x51, 0x3e, 0x5c, 0xfc, 0x11, 0x3e, 0x6c, 0x7c, 0x5d, 0xbe, 0xe5, 0xc4, 0xbc, 0x3d, 0x28, 0x97, 0xbb, 0x3d, 0x78, 0xfb, 0x68, 0x3d, 0xe7, 0x72, 0xfc, 0x3d, 0xe, 0xf1, 0x13, 0xbd, 0xa8, 0xa5, 0x3f, 0x3e, 0xab, 0xeb, 0x5e, 0x3e, 0x91, 0x50, 0x1c, 0xbe, 0x59, 0xc0, 0x2a, 0x3d, 0x63, 0xe, 0x99, 0xbd, 0x91, 0x1c, 0xcb, 0x3d, 0x3f, 0x69, 0x69, 0x3d, 0xa6, 0x6e, 0xd6, 0x3d, 0x83, 0x31, 0x98, 0x3c, 0x6a, 0x7a, 0xd2, 0x3d, 0x40, 0x1a, 0x5c, 0x3e, 0x58, 0xd8, 0x2e, 0xbe, 0x5, 0x6e, 0x14, 0x3e, 0xe2, 0x5e, 0x32, 0xbd, 0x41, 0x36, 0x3e, 0x3e, 0xde, 0x55, 0xf4, 0xbd, 0xcd, 0x9a, 0x7b, 0xbd, 0x3c, 0x68, 0x3c, 0xbe, 0x6e, 0x8, 0x3c, 0xbd, 0x70, 0xf2, 0x5a, 0xbe, 0x2c, 0x97, 0x20, 0x3e, 0x57, 0xe4, 0x8d, 0xbd, 0x65, 0x2e, 0x7e, 0xbe, 0x1e, 0x2e, 0x8e, 0xbd, 0x91, 0x24, 0x8b, 0x3d, 0x24, 0x3c, 0x75, 0xbe, 0x5f, 0xdf, 0x44, 0x3e, 0xbd, 0xbd, 0x43, 0xbd, 0xc1, 0x3c, 0xa8, 0x3c, 0x5e, 0xe2, 0x22, 0x3e, 0x45, 0x35, 0x76, 0xbe, 0xc2, 0x32, 0xf5, 0xbd, 0x1f, 0x25, 0x46, 0xbd, 0xd6, 0x74, 0xdc, 0x3d, 0x74, 0xeb, 0x9c, 0x3d, 0x37, 0x99, 0x2b, 0x3e, 0x81, 0xd4, 0x13, 0x3e, 0xe4, 0x50, 0x56, 0x3e, 0x0, 0x71, 0xf1, 0x3b, 0xe3, 0x58, 0x98, 0xbd, 0x42, 0x88, 0x42, 0x3e, 0xda, 0x37, 0x80, 0x3d, 0x3, 0x87, 0x3a, 0xbe, 0x70, 0x6f, 0x61, 0x3e, 0x5e, 0x92, 0x83, 0xbd, 0x9f, 0x6f, 0x64, 0xbe, 0x31, 0x32, 0x3b, 0x3e, 0xa2, 0xe2, 0x9a, 0xbd, 0x9c, 0xe4, 0x6, 0xbe, 0x3d, 0x13, 0xd3, 0xbd, 0x4c, 0xd, 0x1c, 0x3e, 0x44, 0x10, 0x32, 0xbd, 0xd7, 0x3c, 0x3c, 0x3e, 0xca, 0xb6, 0x39, 0x3e, 0x39, 0xb0, 0xfd, 0xbd, 0x90, 0xd5, 0x7e, 0xbd, 0x38, 0xe9, 0xca, 0x3d, 0x20, 0xb3, 0x3f, 0x3e, 0x96, 0xba, 0x7, 0xbe, 0x4b, 0xe0, 0x21, 0x3e, 0x30, 0xc0, 0xbf, 0x3d, 0x3b, 0x51, 0xfe, 0x3d, 0x13, 0x49, 0xc5, 0xbc, 0xfd, 0xe0, 0xfa, 0xbd, 0x49, 0xd5, 0x9, 0xbe, 0x47, 0xd, 0xb8, 0x3d, 0xf6, 0x2e, 0xdd, 0xbd, 0x87, 0x15, 0x32, 0xbd, 0x24, 0x7, 0x38, 0xbd, 0x7f, 0x14, 0x31, 0x3e, 0x55, 0xe8, 0x8e, 0xbb, 0x9f, 0xd3, 0x3a, 0xbd, 0xa9, 0x41, 0x8, 0x3e, 0x2c, 0x3d, 0x7, 0x3d, 0xe8, 0xa, 0xe, 0x3e, 0x2, 0x47, 0x65, 0x3c, 0x4, 0xb5, 0x16, 0x3e, 0xdf, 0x82, 0xa6, 0xbd, 0x7f, 0x33, 0xc0, 0x3d, 0xa3, 0xe4, 0x28, 0x3e, 0xf, 0xc5, 0x3b, 0x3e, 0xfb, 0xe8, 0xee, 0xbc, 0xee, 0x70, 0xd, 0x3e, 0x72, 0xa, 0x57, 0x3e, 0xa0, 0xb6, 0x3c, 0xbd, 0x63, 0xbf, 0x4f, 0xbe, 0x8d, 0xea, 0xbf, 0xbc, 0xf6, 0xb4, 0x30, 0x3e, 0xce, 0x2f, 0x5d, 0xbd, 0x80, 0x5b, 0xcb, 0x3d, 0xcf, 0x41, 0x20, 0x3e, 0x6b, 0x6, 0xe2, 0x3c, 0xf6, 0x33, 0xae, 0xbd, 0x91, 0xac, 0x54, 0xbe, 0xf2, 0xae, 0x20, 0xbe, 0x2a, 0xdb, 0x9, 0x3e, 0x1c, 0xc7, 0x45, 0xbe, 0x62, 0x10, 0x18, 0x3e, 0xbd, 0xb5, 0xa, 0x3e, 0x49, 0x71, 0x13, 0xbe, 0x90, 0x91, 0x98, 0xbd, 0x22, 0x51, 0x72, 0xbe, 0x80, 0x15, 0x7e, 0xbd, 0x31, 0x94, 0x9d, 0xbc, 0xb6, 0x14, 0xdb, 0x3d, 0xe4, 0xc7, 0x7a, 0xbd, 0xbf, 0xd9, 0x85, 0x3e, 0x6c, 0x36, 0x5d, 0x3e, 0x0, 0x8, 0x51, 0xbe, 0xcd, 0xb5, 0x5c, 0xbe, 0x3b, 0xe1, 0x36, 0x3e, 0xbb, 0x5f, 0x3, 0x3e, 0xda, 0x37, 0x90, 0x3d, 0x7, 0x20, 0x90, 0xbd, 0x7c, 0xcb, 0x73, 0xbe, 0xa6, 0x68, 0x9b, 0x3d, 0x92, 0x23, 0xd6, 0xbd, 0x96, 0xa8, 0xed, 0xbd, 0xf, 0xd5, 0xbd, 0xbd, 0x10, 0xa9, 0xde, 0xbd, 0x79, 0xd7, 0x30, 0xbe, 0x8, 0xc, 0x12, 0xbe, 0x24, 0x2, 0x30, 0x3e, 0x6e, 0x32, 0xbc, 0x3d, 0x98, 0x9e, 0x5b, 0x3e, 0x43, 0xb4, 0x4a, 0xbe, 0xb8, 0x89, 0xd4, 0xbd, 0x2c, 0xf2, 0xf4, 0x3d, 0xb1, 0xc2, 0x63, 0xbe, 0xaa, 0xeb, 0x1d, 0xbc, 0x52, 0x95, 0x10, 0xbe, 0x14, 0x6f, 0x52, 0x3e, 0x56, 0x2d, 0x6b, 0xbe, 0x1a, 0x31, 0x20, 0xbd, 0x70, 0xa1, 0x52, 0xbe, 0x9a, 0x6c, 0x51, 0xbe, 0xbc, 0x83, 0x51, 0x3e, 0x94, 0x31, 0x4c, 0x3e, 0xcf, 0xc6, 0x48, 0xbe, 0x0, 0xbe, 0xb8, 0x3d, 0xef, 0x9e, 0x82, 0x3d, 0xdb, 0x66, 0x66, 0xbe, 0xe9, 0x9d, 0x6a, 0xbe, 0x28, 0xf0, 0x52, 0xbe, 0x89, 0x5c, 0x49, 0x3d, 0x5d, 0xb8, 0xb3, 0xbd, 0x8a, 0xfb, 0x1f, 0xbe, 0xf6, 0xad, 0xf0, 0xbc, 0xe4, 0xf2, 0x74, 0xbe, 0x77, 0x86, 0xa5, 0xbd, 0x41, 0x25, 0x6d, 0x3e, 0x43, 0xc9, 0xa2, 0x3d, 0x16, 0xa9, 0x53, 0xbe, 0xe8, 0xc8, 0x77, 0x3e, 0x2c, 0x56, 0x48, 0x3e, 0xaf, 0xb4, 0xf2, 0x3b, 0x4b, 0x8d, 0x51, 0xbe, 0x7a, 0x71, 0x75, 0xbe, 0x31, 0xe1, 0x19, 0xbe, 0xfd, 0x98, 0x49, 0xbc, 0xde, 0x1d, 0x69, 0x3e, 0x9c, 0x64, 0x5, 0xbe, 0x51, 0xd1, 0x22, 0x3e, 0x5, 0x33, 0x46, 0x3e, 0xb6, 0xb7, 0x8b, 0x3d, 0xb4, 0x4c, 0x36, 0x3e, 0x84, 0xfa, 0x3f, 0xbe, 0x18, 0x9f, 0xae, 0x3d, 0x7f, 0xa8, 0xb4, 0x3d, 0xcb, 0xe1, 0x6a, 0xbe, 0xcf, 0xef, 0x8a, 0x3d, 0xe8, 0xc4, 0x17, 0x3e, 0x95, 0x9b, 0x2a, 0xbe, 0xb7, 0x7a, 0xdf, 0x3d, 0xb4, 0x73, 0x41, 0xbe, 0x3a, 0x40, 0x43, 0x3e, 0x50, 0x59, 0x81, 0xbc, 0x8c, 0x55, 0x18, 0xbe, 0x44, 0xb8, 0x23, 0xbe, 0x70, 0xa2, 0x2b, 0xbe, 0x56, 0x8c, 0xa, 0x3e, 0x1b, 0xa4, 0x1a, 0x3e, 0x2d, 0x8b, 0x14, 0xbe, 0x60, 0x5e, 0x27, 0x3e, 0x10, 0xf3, 0x46, 0xbe, 0xc4, 0xb2, 0x63, 0xbe, 0x5a, 0x7f, 0x35, 0x3e, 0xbe, 0xc5, 0x32, 0x3e, 0x78, 0x85, 0x8f, 0x3d, 0xf9, 0xe4, 0x26, 0x3e, 0x32, 0xc8, 0x5b, 0x3c, 0x32, 0xf2, 0x9e, 0x3d, 0x80, 0x45, 0x37, 0x3d, 0x59, 0x89, 0x16, 0xbe, 0xbb, 0xc6, 0x41, 0x3e, 0x5b, 0x56, 0xd8, 0xbd, 0xe4, 0x25, 0x57, 0xbe, 0x4d, 0xe0, 0x5, 0xbe, 0x6f, 0xb8, 0x31, 0x3e, 0xf0, 0xa1, 0x1, 0xbe, 0x87, 0x41, 0xc5, 0x3c, 0x54, 0xbe, 0x82, 0x3d, 0x59, 0x34, 0x33, 0xbd, 0xa3, 0x9c, 0xe, 0x3e, 0xf, 0x27, 0x23, 0xbd, 0xfb, 0x5d, 0xeb, 0x3c, 0x42, 0x3f, 0x60, 0x3e, 0xcb, 0xfe, 0x2f, 0x3e, 0xad, 0x21, 0x9c, 0x3d, 0x82, 0xa6, 0xe3, 0x3c, 0xdf, 0x1a, 0x65, 0xbe, 0xc8, 0x3f, 0x24, 0xbd, 0x80, 0xb, 0x5a, 0xbc, 0xbb, 0xef, 0xde, 0xbc, 0x49, 0x37, 0xbe, 0xbd, 0x7a, 0xbd, 0x68, 0xbe, 0x83, 0xb1, 0x2c, 0xbe, 0xa0, 0x1c, 0x43, 0x3d, 0x65, 0xf9, 0x4, 0xbe, 0xf3, 0x50, 0x4f, 0xbd, 0x71, 0x52, 0x7f, 0xbd, 0x95, 0x68, 0x67, 0xbe, 0x18, 0x30, 0x78, 0x3e, 0x12, 0xcc, 0xa5, 0x3d, 0x38, 0xb, 0x11, 0x3e, 0x12, 0xd3, 0xb7, 0xbd, 0x4d, 0x5c, 0xed, 0x3d, 0xd7, 0x12, 0x6f, 0xbe, 0x67, 0xeb, 0x21, 0x3e, 0x66, 0x75, 0x2f, 0x3e, 0x54, 0x49, 0x7c, 0xbe, 0xca, 0x70, 0xf6, 0xbd, 0x47, 0x70, 0x2f, 0x3e, 0x3f, 0x41, 0x3c, 0xbe, 0xbe, 0xbf, 0x1, 0x3e, 0x24, 0x15, 0x39, 0x3d, 0x5b, 0x31, 0x43, 0x3e, 0x29, 0x62, 0xe3, 0xbd, 0xda, 0x9c, 0xb3, 0xbd, 0xbc, 0x69, 0x23, 0x3e, 0x29, 0xe2, 0x21, 0xbe, 0x12, 0x76, 0x26, 0xbe, 0xfc, 0x3b, 0x52, 0x3e, 0x73, 0xf8, 0x78, 0x3e, 0x4c, 0x9d, 0x84, 0x3c, 0xba, 0x49, 0x2a, 0x3e, 0x58, 0xdc, 0x81, 0x3e, 0x10, 0xaa, 0x3e, 0xbe, 0x13, 0x52, 0x76, 0xbe, 0xd0, 0x10, 0x99, 0xbd, 0x54, 0x10, 0x41, 0x3e, 0x6a, 0xfe, 0x5e, 0xbe, 0x40, 0x85, 0x6f, 0x3c, 0x15, 0x5c, 0x21, 0xbe, 0xfe, 0x74, 0x3, 0x3d, 0xe2, 0x72, 0x26, 0xbc, 0xc, 0xb2, 0x3e, 0x3e, 0xdb, 0xf, 0x4c, 0xbd, 0x75, 0x71, 0x7, 0x3d, 0xa0, 0xe, 0xe4, 0x3d, 0x8e, 0x40, 0xa5, 0xbd, 0x1d, 0x2d, 0xe9, 0xbd, 0xdf, 0x20, 0x3f, 0x3e, 0x30, 0x31, 0xb, 0xbe, 0x7d, 0xe6, 0x5b, 0x3e, 0xa1, 0x3c, 0x3c, 0x3e, 0xe0, 0x10, 0xc0, 0x3d, 0x20, 0xe8, 0x9, 0xbd, 0xd5, 0x81, 0x76, 0x3e, 0xa8, 0xfb, 0xaa, 0x3d, 0x2f, 0xc3, 0x74, 0x3e, 0xe6, 0xa9, 0x7e, 0x3e, 0x42, 0x12, 0x78, 0xbe, 0x9e, 0x1c, 0xd9, 0x3d, 0xd3, 0xa5, 0xa1, 0x3d, 0x38, 0xfe, 0x38, 0x3e, 0x10, 0xa6, 0x52, 0x3d, 0x22, 0x6d, 0x49, 0xbe, 0xf3, 0x9f, 0x6d, 0x3d, 0xb0, 0x8, 0x10, 0x3d, 0xa5, 0xb4, 0x3f, 0xbe, 0x60, 0xac, 0x1d, 0x3d, 0x9b, 0xab, 0x64, 0xbe, 0x21, 0x75, 0x82, 0x3d, 0xdb, 0x81, 0x3, 0xbe, 0xf6, 0x37, 0x6a, 0xbd, 0x38, 0xb7, 0x60, 0xbe, 0x43, 0x72, 0x34, 0x3e, 0x67, 0x9c, 0x76, 0x3e, 0xe8, 0x36, 0x52, 0xbe, 0xd, 0x50, 0x4b, 0xbe, 0xe3, 0x10, 0x90, 0xbd, 0x69, 0xac, 0x2e, 0xbd, 0xee, 0xa2, 0x68, 0x3e, 0x58, 0xba, 0xbb, 0x3d, 0x9b, 0xae, 0x4f, 0x3e, 0x7e, 0x5e, 0x6b, 0xbe, 0x10, 0x11, 0x1, 0xbe, 0xb, 0xa3, 0xb8, 0xbd, 0x87, 0xa3, 0x2a, 0xbe, 0x59, 0xaf, 0xcb, 0x3b, 0xc6, 0x9d, 0xa4, 0xbd, 0x70, 0xf3, 0x6, 0x3e, 0x80, 0xc, 0x19, 0x3e, 0xed, 0x8b, 0x48, 0xbe, 0xf, 0x9d, 0xd5, 0x3a, 0x10, 0x87, 0xf, 0xbe, 0x86, 0x80, 0x35, 0x3e, 0x48, 0x4d, 0x76, 0x3d, 0x16, 0x82, 0x58, 0xbe, 0xa7, 0x7e, 0x1d, 0xbe, 0xd8, 0x6d, 0xa, 0x3e, 0xa5, 0xd, 0x77, 0xbc, 0x90, 0x49, 0x2c, 0xbd, 0x43, 0xd6, 0x61, 0xbe, 0x2d, 0xe7, 0xf8, 0xbc, 0x48, 0xbd, 0xe, 0x3e, 0xe9, 0x73, 0x5e, 0xbe, 0x15, 0xcb, 0xcc, 0xbc, 0xec, 0x97, 0xd8, 0x3d, 0x23, 0xf4, 0x12, 0x3e, 0x1c, 0x31, 0x2d, 0xbe, 0xb4, 0xf3, 0x7e, 0xbe, 0x71, 0x30, 0x55, 0x3e, 0x9e, 0xda, 0x26, 0x3e, 0xaf, 0x85, 0x24, 0x3e, 0xe9, 0x11, 0x3c, 0x3e, 0x2, 0x59, 0x65, 0x3e, 0xd, 0x2d, 0xa3, 0x3d, 0x6a, 0x54, 0x5c, 0xbe, 0xc8, 0x9c, 0x20, 0xbe, 0x50, 0x56, 0x18, 0xbe, 0xb0, 0x55, 0x85, 0x3d, 0x6d, 0xb7, 0x14, 0x3d, 0x37, 0xf5, 0x5f, 0xbe, 0xfa, 0xe7, 0x95, 0xbd, 0x36, 0x25, 0x8c, 0xbd, 0xb2, 0xd6, 0x30, 0x3e, 0x26, 0x9d, 0xe7, 0xbd, 0x6a, 0xf4, 0x39, 0x3e, 0xa8, 0xd3, 0xf8, 0x3d, 0x44, 0xf, 0x5f, 0xbe, 0x5b, 0xd9, 0x3e, 0xbe, 0x2, 0x3f, 0xb6, 0xbd, 0x87, 0x56, 0x65, 0x3e, 0xe8, 0x5f, 0x61, 0x3e, 0xdb, 0xa4, 0xb8, 0xbd, 0xd1, 0xeb, 0x25, 0xbe, 0xf2, 0xee, 0x6a, 0xbe, 0x87, 0x6b, 0x44, 0x3e, 0x39, 0xfc, 0x39, 0x3e, 0xbe, 0x5, 0x39, 0x3e, 0x19, 0x84, 0x36, 0xbd, 0x55, 0xf7, 0x54, 0x3e, 0x9c, 0x5, 0x3e, 0xbd, 0x1a, 0xa1, 0xe3, 0xbc, 0xcc, 0x49, 0xcc, 0xbd, 0xc1, 0x10, 0xbd, 0xbc, 0x54, 0x36, 0x71, 0x3e, 0xd6, 0x67, 0xa, 0x3e, 0x31, 0x12, 0x19, 0xbe, 0xd0, 0x90, 0x67, 0x3e, 0xd8, 0xd6, 0x2c, 0x3e, 0x6, 0x3f, 0xaf, 0x38, 0xe1, 0x73, 0x45, 0xbe, 0x77, 0xcf, 0x21, 0xbe, 0xcc, 0xc6, 0x42, 0x3e, 0x7a, 0x82, 0x38, 0x3c, 0x0, 0xf8, 0xbe, 0xbd, 0xad, 0x38, 0x48, 0xbe, 0xf8, 0xdd, 0xed, 0x3d, 0x13, 0x9c, 0x91, 0x3d, 0x2a, 0x41, 0xb2, 0xbd, 0x97, 0x27, 0x15, 0xbe, 0x37, 0x73, 0x36, 0xbe, 0x7c, 0xa8, 0x22, 0x3e, 0x9c, 0x64, 0x7c, 0x3e, 0xc0, 0x42, 0x2a, 0xbe, 0xef, 0xd6, 0xca, 0xbd, 0xb1, 0xd3, 0x98, 0x3d, 0xe8, 0xa8, 0xc6, 0x3d, 0x40, 0x39, 0x6, 0x3c, 0xf0, 0x88, 0x1a, 0x3e, 0x64, 0xfe, 0xb7, 0x3d, 0x52, 0xc0, 0x3b, 0x3e, 0x3a, 0x4c, 0x67, 0x3e, 0x24, 0xd1, 0x50, 0xbe, 0x63, 0x44, 0xae, 0xbd, 0xfb, 0x96, 0x9a, 0xbd, 0xf8, 0xe5, 0xfe, 0x3d, 0x6a, 0x6d, 0xaa, 0xbd, 0x2e, 0x31, 0x3e, 0x3e, 0xa5, 0xf5, 0x94, 0xbd, 0xf8, 0x9e, 0x4e, 0x3e, 0x2, 0x9b, 0x21, 0xbd, 0xc8, 0xbe, 0x79, 0x3e, 0x70, 0x34, 0xe, 0x3e, 0xd4, 0xcb, 0x80, 0xbe, 0x72, 0x13, 0xe5, 0xbd, 0x21, 0xe2, 0x2c, 0x3d, 0x5a, 0xf7, 0xff, 0xff, 0x4, 0x0, 0x0, 0x0, 0x0, 0x7, 0x0, 0x0, 0x32, 0xca, 0x7b, 0x3e, 0x98, 0x77, 0x6e, 0x3e, 0x42, 0x3a, 0x3d, 0xbe, 0x50, 0x91, 0x49, 0xbe, 0xa0, 0x9a, 0x2b, 0x3e, 0x93, 0x93, 0x59, 0x3e, 0xa4, 0xc3, 0x3b, 0x3e, 0xd7, 0x9a, 0x53, 0xbe, 0x48, 0xf3, 0x8d, 0x3d, 0x3, 0xa4, 0x27, 0xbe, 0xaa, 0x3d, 0x2b, 0x3e, 0xb9, 0xb6, 0xa, 0x3e, 0xf6, 0xc9, 0x40, 0x3e, 0xe8, 0x63, 0x26, 0x3d, 0xd0, 0x60, 0x9e, 0x3d, 0x4b, 0xe, 0x1, 0x3e, 0x20, 0xf4, 0xac, 0x3c, 0x8, 0xdf, 0x96, 0x3e, 0xfd, 0x7c, 0xd6, 0x3d, 0x70, 0x1d, 0x97, 0xbb, 0xb1, 0x4d, 0x86, 0xbe, 0x6b, 0xcf, 0x1e, 0xbe, 0x5a, 0xab, 0xdc, 0xbd, 0x41, 0x6a, 0x77, 0x3e, 0xcc, 0x33, 0x25, 0x3e, 0x5, 0xb7, 0x35, 0x3e, 0x7c, 0xaf, 0x50, 0x3e, 0xe4, 0xb9, 0x4, 0x3e, 0xd6, 0x11, 0x9, 0x3e, 0xd4, 0xb2, 0x63, 0xbe, 0xf1, 0x5d, 0x8e, 0xbe, 0x4c, 0x6, 0x6b, 0xbd, 0x34, 0xc9, 0xaa, 0x3d, 0x84, 0x61, 0xe9, 0x3d, 0x12, 0x7d, 0xfa, 0xbd, 0x8a, 0xa6, 0x8a, 0x3e, 0x6c, 0x5f, 0x80, 0x3d, 0xca, 0xa5, 0x45, 0x3d, 0xa6, 0x86, 0x13, 0xbe, 0xba, 0x24, 0x46, 0xbe, 0xf5, 0x41, 0x1b, 0xbe, 0x2e, 0xc, 0x1c, 0xbe, 0x1f, 0x1d, 0x66, 0xbe, 0x28, 0x54, 0x85, 0x3d, 0xe9, 0x28, 0x4a, 0xbd, 0x21, 0x3c, 0xc1, 0x3d, 0x5d, 0xd8, 0x8a, 0xbe, 0x9, 0x43, 0xe, 0x3e, 0x41, 0xe9, 0x1d, 0xbe, 0xb1, 0xc5, 0xf8, 0xbd, 0x8d, 0xe7, 0x7a, 0x3b, 0xb5, 0x4c, 0x1b, 0x3e, 0xa2, 0xb7, 0x48, 0x3e, 0x47, 0x3, 0x1d, 0x3e, 0xd4, 0x61, 0xc4, 0xbd, 0xbd, 0x24, 0x8c, 0xbe, 0x70, 0xa, 0x38, 0x3e, 0x5d, 0x9b, 0x73, 0xbe, 0x5c, 0x82, 0x43, 0x3e, 0x1a, 0xda, 0xcc, 0x3d, 0xdf, 0xc6, 0x2c, 0xbe, 0x1c, 0x89, 0xb4, 0xbd, 0x58, 0x8a, 0x22, 0x3d, 0x10, 0x9d, 0xe4, 0xbc, 0x80, 0x24, 0x92, 0xbc, 0x20, 0x6c, 0x58, 0xbc, 0x8a, 0xea, 0x8f, 0xbe, 0x59, 0x38, 0x1b, 0xbe, 0xd4, 0x1f, 0x74, 0xbd, 0xe1, 0x28, 0x93, 0xbe, 0x73, 0x2f, 0x3f, 0xbe, 0xb5, 0x37, 0x97, 0xbd, 0x9d, 0xd7, 0x62, 0x3d, 0x5e, 0x41, 0x5c, 0x3d, 0x4b, 0xd1, 0xcc, 0x3d, 0x94, 0x17, 0x83, 0x3d, 0x35, 0xf4, 0x88, 0x3e, 0x4a, 0x53, 0xf7, 0xbc, 0x7b, 0xd0, 0x65, 0x3e, 0xac, 0x7a, 0x10, 0x3e, 0x7b, 0xff, 0x7f, 0x3e, 0xf7, 0xf0, 0x83, 0xbe, 0x4d, 0x63, 0x68, 0xbe, 0x34, 0x58, 0xc, 0xbe, 0x3c, 0xca, 0x5d, 0xbe, 0x2c, 0x82, 0xf0, 0xbd, 0x3a, 0x85, 0x84, 0x3e, 0x7c, 0x41, 0x25, 0xbc, 0xad, 0x8e, 0x7a, 0x3e, 0x43, 0x16, 0x1a, 0x3e, 0xde, 0xc1, 0x3e, 0x3e, 0x5, 0xbe, 0x47, 0xbe, 0x4e, 0x6a, 0x95, 0xbd, 0xa8, 0x65, 0x20, 0xbe, 0x57, 0xb1, 0x8, 0xbe, 0xb4, 0x78, 0x87, 0x3e, 0xca, 0x3c, 0x8c, 0x3e, 0xd9, 0x3c, 0x87, 0xbe, 0x66, 0x5c, 0x38, 0xbe, 0xc1, 0x23, 0x2, 0x3e, 0x56, 0x6, 0xf8, 0xbd, 0x91, 0x7e, 0xf9, 0xbb, 0xf, 0x6c, 0x4a, 0x3e, 0xfa, 0x36, 0xb6, 0x3d, 0x60, 0xb, 0xd7, 0x3d, 0x1b, 0xc3, 0x7d, 0xbe, 0xc3, 0x55, 0x18, 0x3e, 0xd2, 0x3c, 0x32, 0x3e, 0xb9, 0xa6, 0x6, 0xbe, 0x7c, 0x45, 0x1b, 0xbe, 0x13, 0xa2, 0x14, 0x3d, 0xb0, 0x3e, 0x2a, 0xbd, 0x2e, 0xe2, 0x89, 0x3d, 0xd5, 0x5d, 0x45, 0x3e, 0xeb, 0x92, 0x86, 0x3d, 0x1d, 0x58, 0x1a, 0xbe, 0xfa, 0x61, 0xe0, 0x3d, 0x8b, 0x29, 0xb4, 0x3c, 0x68, 0x4f, 0x6f, 0x3d, 0xb4, 0x9b, 0x13, 0x3e, 0xcc, 0xcf, 0x82, 0xbe, 0x56, 0xbd, 0xa7, 0x3d, 0x58, 0x1a, 0xcc, 0xbc, 0x3a, 0x28, 0xb0, 0xbd, 0xde, 0x2f, 0x92, 0x3e, 0x9d, 0xb, 0x93, 0x3e, 0xce, 0x84, 0x68, 0x3e, 0x28, 0x90, 0xb7, 0x3d, 0x4f, 0x91, 0x1c, 0x3d, 0x19, 0x3d, 0x52, 0xbd, 0xd5, 0x29, 0xbd, 0xbd, 0x55, 0x69, 0x96, 0x3c, 0x3e, 0x55, 0x16, 0x3e, 0x42, 0x11, 0x5b, 0x3e, 0x64, 0x40, 0x38, 0x3c, 0x1c, 0xf5, 0x5, 0x3e, 0xd, 0x10, 0xe0, 0x3a, 0xff, 0x9e, 0x41, 0xbe, 0x30, 0xa9, 0x89, 0xbe, 0x0, 0xfc, 0xf9, 0xbb, 0xa5, 0x99, 0x2a, 0xbe, 0x48, 0xe4, 0xc, 0xbe, 0x79, 0xc9, 0x52, 0x3e, 0xfe, 0xa8, 0x9, 0xbd, 0xe2, 0x59, 0x34, 0x3e, 0x46, 0x53, 0x55, 0xbc, 0xe1, 0x8e, 0x81, 0x3e, 0xcb, 0x13, 0x91, 0xbe, 0xbc, 0x26, 0x12, 0xbd, 0x74, 0xb1, 0xfb, 0x3d, 0xaf, 0x2b, 0x8a, 0x3b, 0xad, 0xc7, 0x7, 0x3d, 0x1e, 0xba, 0x8f, 0xbe, 0xf5, 0xc2, 0x8b, 0x3e, 0x12, 0x68, 0x95, 0xbd, 0x0, 0xa3, 0x59, 0xbe, 0x0, 0x3, 0x7d, 0xbd, 0x68, 0xb8, 0x19, 0xbd, 0x90, 0x27, 0xf, 0x3d, 0x98, 0x9e, 0x52, 0xbe, 0x3e, 0x6f, 0x74, 0x3e, 0xc0, 0x39, 0xe, 0xbe, 0xe, 0xf9, 0x33, 0xbe, 0xb1, 0xb8, 0x59, 0x3e, 0xbb, 0x97, 0x66, 0xbe, 0x18, 0x37, 0x8b, 0x3e, 0x3, 0x4e, 0x46, 0xbe, 0xee, 0x7f, 0x4c, 0x3e, 0xe4, 0x9e, 0x84, 0x3e, 0x8c, 0xb, 0xe, 0x3e, 0xa2, 0xe4, 0x56, 0x3e, 0xec, 0xcf, 0xd3, 0xbb, 0x60, 0xbc, 0x28, 0x3e, 0x84, 0x51, 0x48, 0x3c, 0xfa, 0xe4, 0x30, 0xbe, 0xb5, 0x8e, 0xf, 0x3e, 0xed, 0xae, 0x1b, 0xbd, 0x38, 0xa0, 0x8a, 0xbd, 0x66, 0x75, 0x4d, 0x3e, 0x46, 0x71, 0x23, 0xbe, 0xac, 0x8e, 0x6, 0x3d, 0x0, 0xd6, 0x2e, 0xbc, 0x89, 0xc4, 0x8d, 0x3d, 0x7d, 0x7, 0x2b, 0x3d, 0xd3, 0xc5, 0xb0, 0xbd, 0x73, 0x60, 0x1c, 0x3e, 0x40, 0x34, 0x8d, 0xbc, 0xf6, 0xc7, 0x39, 0x3e, 0xbc, 0x31, 0x79, 0xbd, 0xe4, 0x61, 0x8a, 0x3e, 0x87, 0x3c, 0x25, 0x3e, 0x87, 0x2d, 0x90, 0x3d, 0x63, 0x3f, 0x20, 0xbe, 0x8c, 0x6e, 0x96, 0xbc, 0xca, 0x8f, 0x75, 0x3e, 0x5e, 0xda, 0xb, 0x3e, 0x5f, 0x6a, 0x3e, 0x3e, 0x6a, 0xce, 0x96, 0xbe, 0x41, 0x70, 0x69, 0x3e, 0x43, 0x7e, 0x22, 0x3e, 0x39, 0x8f, 0x5, 0xbd, 0xe2, 0xea, 0xb, 0x3e, 0xc8, 0xed, 0xca, 0xbd, 0xc5, 0x72, 0xa4, 0xbd, 0x75, 0x15, 0x30, 0x3c, 0x16, 0x42, 0x2c, 0xbd, 0x9e, 0x8b, 0x13, 0x3e, 0x14, 0xf0, 0x33, 0x3e, 0x19, 0x53, 0x7f, 0x3e, 0x4, 0x9b, 0x90, 0x3d, 0xb2, 0x26, 0x64, 0x3d, 0x6a, 0xec, 0xe0, 0x3d, 0xbc, 0x53, 0x75, 0xbd, 0x1, 0x69, 0x0, 0xbe, 0xe3, 0x53, 0x6d, 0xbe, 0xc5, 0x58, 0x10, 0xbd, 0x70, 0x89, 0x8, 0x3d, 0x77, 0x5e, 0x58, 0xbe, 0x92, 0xcd, 0x58, 0x3e, 0xf, 0xc1, 0xc, 0x3d, 0xb4, 0x63, 0x6d, 0xbe, 0xfd, 0x8e, 0xa2, 0x3d, 0x8a, 0x14, 0x3d, 0xbe, 0x2e, 0xd1, 0xcd, 0xbd, 0x71, 0x1, 0xec, 0xbd, 0x61, 0xe3, 0x7b, 0x3e, 0x62, 0x42, 0xd, 0x3d, 0x5a, 0xdd, 0xdd, 0x3b, 0x92, 0x37, 0xf4, 0x3d, 0xa4, 0xa9, 0x77, 0x3e, 0x27, 0xec, 0x93, 0x3e, 0xd8, 0x27, 0x76, 0xbe, 0x9d, 0x11, 0xe4, 0x3d, 0xd0, 0x26, 0x2d, 0xbe, 0x70, 0x9e, 0xc7, 0x3d, 0x7e, 0x54, 0x28, 0xbb, 0x9d, 0x37, 0x88, 0xbe, 0x20, 0xc0, 0x26, 0xbd, 0xe0, 0xb0, 0xc1, 0xbc, 0x5c, 0x58, 0xcc, 0xbd, 0x80, 0x10, 0x63, 0xbb, 0x53, 0x27, 0x64, 0xbe, 0x80, 0xe8, 0xa2, 0xbb, 0xe2, 0x22, 0x59, 0x3e, 0x34, 0xde, 0x82, 0xbe, 0x9e, 0xb6, 0x59, 0xbe, 0xea, 0xa8, 0x8f, 0x3e, 0x5a, 0xda, 0x8f, 0x3d, 0x49, 0xc2, 0xa5, 0x3d, 0xc, 0x56, 0x93, 0x3e, 0x62, 0x42, 0x57, 0x3d, 0x33, 0xd5, 0x2, 0xbe, 0x57, 0xa7, 0x6, 0x3c, 0xb9, 0xcc, 0x36, 0x3e, 0x3f, 0xcb, 0x54, 0xbc, 0xb, 0x7c, 0xa5, 0x3b, 0x42, 0xf9, 0xf6, 0xbd, 0xf5, 0xe9, 0x6c, 0x3e, 0x81, 0x32, 0x92, 0x3e, 0x85, 0xcf, 0xd2, 0x3d, 0x1e, 0xcb, 0x33, 0x3e, 0x36, 0x78, 0x8b, 0xbe, 0xa9, 0xd3, 0xb1, 0x3c, 0x31, 0xee, 0xc, 0x3d, 0x3b, 0xa8, 0x39, 0xbd, 0x74, 0x74, 0x8c, 0xbe, 0xc2, 0xd5, 0x8d, 0x3d, 0xe, 0x8b, 0x96, 0x3e, 0x27, 0xc6, 0x51, 0xbe, 0x8b, 0xc2, 0x28, 0xbe, 0x5e, 0xd3, 0x2a, 0x3e, 0xb, 0x52, 0x2a, 0x3e, 0xc0, 0xcb, 0x73, 0xbc, 0x54, 0x8b, 0xbf, 0xbd, 0x0, 0xc3, 0xec, 0xbd, 0x96, 0x91, 0x62, 0x3e, 0xde, 0xcd, 0x2c, 0xbe, 0xf7, 0x4d, 0x5b, 0xbe, 0x94, 0x2d, 0x3d, 0xbe, 0xac, 0x3e, 0xd0, 0x3d, 0xfc, 0x2d, 0x1d, 0x3e, 0x26, 0x45, 0x81, 0xbd, 0xb7, 0x7, 0x7d, 0x3d, 0x8f, 0xdf, 0x96, 0xbe, 0x5a, 0x61, 0x0, 0xbc, 0x9f, 0x4, 0x4f, 0xbe, 0xd4, 0xd6, 0x7, 0x3e, 0x31, 0xc1, 0x84, 0xbe, 0x70, 0x64, 0xc8, 0x3d, 0x34, 0x34, 0x8a, 0xbe, 0xa6, 0x9f, 0x8, 0xbe, 0xc0, 0x79, 0x24, 0xbc, 0xc0, 0xeb, 0x81, 0xbd, 0x28, 0x5e, 0x3d, 0xbd, 0x92, 0x13, 0xd4, 0x3d, 0x2d, 0xbb, 0x2a, 0x3e, 0x2c, 0x6a, 0x7e, 0xbe, 0xc7, 0x14, 0x89, 0xbd, 0xee, 0x24, 0x96, 0x3e, 0x1f, 0xfe, 0x98, 0xbd, 0x70, 0x57, 0xd1, 0xbc, 0x45, 0xde, 0x12, 0xbe, 0xe1, 0x19, 0x72, 0xbd, 0xb2, 0xa7, 0x8a, 0x3e, 0x77, 0x24, 0x74, 0x3e, 0x3d, 0x4b, 0x4c, 0xbe, 0xad, 0xbb, 0x63, 0xbc, 0x64, 0x3, 0x5a, 0xbd, 0x70, 0x9f, 0xb6, 0x3d, 0x90, 0xc, 0xfc, 0xbd, 0xc0, 0x52, 0xb4, 0xbc, 0x60, 0xca, 0x6b, 0xbd, 0xd8, 0x89, 0x73, 0x3d, 0xdb, 0xed, 0x57, 0xbe, 0x0, 0xd0, 0xfb, 0x3b, 0x1a, 0x47, 0xc0, 0x3b, 0x65, 0x31, 0x7a, 0x3e, 0xe, 0x1f, 0x1, 0xbe, 0xae, 0x27, 0x80, 0xbe, 0xd8, 0x7e, 0x6a, 0xbe, 0x77, 0xed, 0xf, 0x3e, 0xa0, 0xf7, 0x7d, 0x3d, 0xff, 0xb, 0x61, 0x3d, 0xe9, 0xeb, 0x96, 0xbe, 0xdb, 0xb9, 0x39, 0x3e, 0xeb, 0xce, 0x2e, 0x3d, 0xad, 0x35, 0x42, 0xbd, 0xa0, 0xe8, 0x42, 0x3e, 0x50, 0x2d, 0x22, 0xbd, 0x67, 0xdf, 0xa8, 0x3d, 0x8a, 0x61, 0x60, 0xba, 0xa9, 0x41, 0xe3, 0x3d, 0x5a, 0x5f, 0xdf, 0xbd, 0x5, 0x35, 0x69, 0xbe, 0x65, 0x67, 0x2c, 0x3d, 0x86, 0x3d, 0x4e, 0xbe, 0xd, 0x3a, 0x62, 0xbe, 0x30, 0x14, 0xe3, 0x3d, 0x2c, 0x3b, 0x33, 0xbe, 0x80, 0x57, 0x8d, 0x3d, 0x85, 0x44, 0x72, 0x3e, 0x8c, 0x66, 0x94, 0xbe, 0xf6, 0x44, 0xe2, 0xbd, 0xf7, 0xaf, 0x87, 0xbe, 0x2a, 0xfd, 0x71, 0x3e, 0x17, 0x71, 0xfe, 0x3d, 0x27, 0x41, 0xb3, 0x3d, 0x1d, 0xb9, 0x64, 0x3e, 0x90, 0x8, 0x86, 0xbe, 0x12, 0xfb, 0xec, 0xbd, 0xab, 0xa3, 0x8a, 0x3e, 0x76, 0x8f, 0x92, 0xbe, 0x14, 0x11, 0x4d, 0xbe, 0xc1, 0xb9, 0x94, 0xbe, 0x4c, 0x78, 0x8c, 0x3e, 0xbd, 0x4d, 0x79, 0x3d, 0x9c, 0xe8, 0x8d, 0xbd, 0xe1, 0x5a, 0xd6, 0x3d, 0x5a, 0xee, 0x1a, 0xbe, 0x5e, 0x59, 0x93, 0xbc, 0xfe, 0xcd, 0xb2, 0x3d, 0x37, 0xe3, 0x84, 0x3e, 0x76, 0xf2, 0x69, 0xbd, 0x52, 0x9e, 0x45, 0x3e, 0x42, 0xda, 0x78, 0x3e, 0x94, 0x80, 0x70, 0xbe, 0x2f, 0x3f, 0x4b, 0x3e, 0xa2, 0xa5, 0xf, 0x3e, 0x88, 0x89, 0x1, 0x3e, 0x61, 0x17, 0x14, 0xbc, 0x42, 0x72, 0xd3, 0xbd, 0x1a, 0xcc, 0x3a, 0x3e, 0x74, 0x7, 0x36, 0x3e, 0x39, 0xa6, 0x8f, 0xbe, 0x9c, 0x63, 0x8a, 0x3e, 0x51, 0xc1, 0x1e, 0xbd, 0xf8, 0x68, 0x35, 0xbd, 0x30, 0x12, 0xc0, 0x3c, 0xaf, 0xcd, 0x73, 0x3e, 0x7d, 0x6d, 0x47, 0xbe, 0xc5, 0x72, 0x2a, 0xbc, 0x92, 0x8b, 0xe6, 0xbd, 0x9a, 0xb7, 0xc, 0xbe, 0x1e, 0xbb, 0x8a, 0x3e, 0xf4, 0xeb, 0x48, 0x3e, 0xde, 0x27, 0xca, 0xbd, 0x59, 0xbf, 0xd8, 0xbd, 0xee, 0xf9, 0x68, 0x3e, 0x99, 0x91, 0xf, 0xbc, 0xe1, 0x95, 0x87, 0x3d, 0x28, 0xc0, 0xb5, 0x3d, 0xc8, 0xf, 0xd9, 0x3d, 0x4b, 0x83, 0xd0, 0xbd, 0xf5, 0x66, 0x25, 0x3e, 0x75, 0x61, 0xfc, 0xbd, 0xf4, 0x30, 0x8b, 0x3d, 0x1f, 0xc3, 0x39, 0x3e, 0xd5, 0x17, 0x71, 0xbd, 0x40, 0x5, 0x8c, 0xbb, 0x14, 0x22, 0x6d, 0xbd, 0xcc, 0x66, 0x7c, 0x3e, 0xdb, 0xa7, 0x6f, 0xbe, 0x42, 0x66, 0x30, 0x3e, 0xd2, 0x49, 0x3e, 0xbd, 0x67, 0x7a, 0x7a, 0x3e, 0xfc, 0xbf, 0x47, 0x3e, 0x14, 0xc0, 0x4b, 0xbd, 0x19, 0xc8, 0x48, 0xbe, 0x2a, 0xfb, 0xa5, 0x3c, 0xc6, 0x94, 0xf3, 0xbd, 0xb5, 0x52, 0x92, 0x3e, 0xdc, 0x85, 0xa7, 0xbd, 0x82, 0xf4, 0x25, 0xbe, 0xd2, 0x83, 0xb, 0x3e, 0x9, 0x9a, 0xee, 0xbd, 0x18, 0x69, 0x2, 0x3e, 0xc3, 0x94, 0x5f, 0xbe, 0x8b, 0xcb, 0xed, 0xbd, 0xf8, 0x87, 0x6a, 0xbe, 0xda, 0xa3, 0x84, 0xbe, 0xb3, 0x40, 0x2f, 0xbe, 0xe9, 0x78, 0x50, 0xbe, 0xee, 0xe5, 0x8b, 0x3e, 0x1f, 0xc5, 0xce, 0x3c, 0x65, 0x9a, 0x3b, 0xbe, 0xc4, 0xef, 0x88, 0x3d, 0xc2, 0x45, 0x87, 0xbe, 0x6, 0x57, 0x48, 0x3e, 0x6e, 0x36, 0x27, 0xbe, 0x48, 0xb4, 0xbb, 0xbd, 0xae, 0xf3, 0x81, 0x3d, 0x7, 0x7d, 0x63, 0x3e, 0x64, 0x0, 0x7d, 0x3e, 0xb6, 0x86, 0x7e, 0x3e, 0x4b, 0x1d, 0x78, 0x3e, 0x3e, 0xd6, 0x90, 0xbe, 0x82, 0xc, 0x53, 0x3e, 0xdb, 0x5a, 0x2f, 0xbe, 0xe7, 0xe4, 0x49, 0x3c, 0x40, 0x3a, 0x38, 0x3e, 0xaa, 0xc2, 0x3, 0x3e, 0x3b, 0x31, 0x72, 0x3e, 0x6a, 0xbd, 0x71, 0x3d, 0xee, 0x55, 0x89, 0x3d, 0x1e, 0x7b, 0x14, 0xbd, 0x80, 0x90, 0x6b, 0x3e, 0xc3, 0x44, 0x3e, 0xbc, 0xc0, 0xdf, 0x4a, 0xbc, 0x66, 0xfe, 0xff, 0xff, 0x4, 0x0, 0x0, 0x0, 0x0, 0x1, 0x0, 0x0, 0xaf, 0x66, 0xb4, 0x3c, 0xef, 0x44, 0x92, 0xbc, 0x85, 0x13, 0x9d, 0x3c, 0xac, 0x74, 0xab, 0x3c, 0x0, 0x0, 0x0, 0x0, 0x13, 0x4e, 0x2a, 0xbc, 0xa6, 0x97, 0xf9, 0xbb, 0xb5, 0xb0, 0x60, 0xbc, 0x87, 0x87, 0x13, 0xbc, 0x0, 0x0, 0x0, 0x0, 0x6c, 0xcd, 0x99, 0xbc, 0xf5, 0x32, 0x7b, 0x3a, 0xa, 0x96, 0x6f, 0xbc, 0x21, 0xd8, 0x11, 0x3c, 0x13, 0xc3, 0x8d, 0x3c, 0x45, 0x3e, 0x80, 0xbb, 0x5, 0x29, 0xab, 0x3b, 0x79, 0x3d, 0xd2, 0x3c, 0x5e, 0xca, 0x58, 0xbc, 0x48, 0x2c, 0x73, 0x3a, 0xa8, 0xe0, 0x82, 0xba, 0xd8, 0x86, 0x89, 0xb9, 0x0, 0x0, 0x0, 0x0, 0x1c, 0xf6, 0xb7, 0xbb, 0x89, 0xa7, 0x98, 0xbc, 0xa6, 0x7b, 0x89, 0xbc, 0x5c, 0xe, 0x83, 0x3c, 0xca, 0x51, 0xa5, 0xbc, 0x80, 0x5b, 0x9a, 0xbc, 0x7b, 0x9d, 0x8a, 0x3c, 0x89, 0x40, 0x30, 0xbb, 0x1d, 0x6d, 0x16, 0xbc, 0x20, 0xb8, 0xa1, 0xbc, 0xd6, 0x70, 0xae, 0x3b, 0x0, 0x0, 0x0, 0x0, 0x48, 0x90, 0x87, 0x3c, 0x66, 0xa8, 0x9e, 0xbc, 0xb, 0xa5, 0x2e, 0x3c, 0x68, 0x13, 0xa1, 0x3c, 0x0, 0x0, 0x0, 0x0, 0xbf, 0x72, 0xe8, 0xba, 0x0, 0x0, 0x0, 0x0, 0x37, 0xb1, 0xf0, 0x3b, 0xb0, 0x9f, 0x9c, 0xbc, 0x0, 0x0, 0x0, 0x0, 0xd4, 0x53, 0x68, 0xba, 0xf7, 0x2b, 0x36, 0xbc, 0xe3, 0x61, 0x39, 0xbc, 0x88, 0x44, 0x98, 0xbb, 0xdb, 0x82, 0x60, 0x3c, 0xcf, 0x3d, 0x56, 0xbc, 0xc, 0x39, 0xac, 0xbc, 0xb8, 0x6, 0xa9, 0xbc, 0x74, 0x5f, 0x25, 0xbc, 0xad, 0x77, 0x83, 0x3c, 0x1a, 0xcb, 0x1d, 0xbc, 0xdb, 0x8c, 0x99, 0x3c, 0x9, 0x18, 0x75, 0xbc, 0xca, 0x31, 0x2a, 0x3b, 0x34, 0x85, 0xf, 0xbc, 0x4f, 0xde, 0xe, 0x3c, 0xe, 0x0, 0xa6, 0xbc, 0x5b, 0xc7, 0x73, 0xbc, 0x60, 0xef, 0xbb, 0xbb, 0x72, 0xff, 0xff, 0xff, 0x4, 0x0, 0x0, 0x0, 0x80, 0x0, 0x0, 0x0, 0x9c, 0xb3, 0x3c, 0xbc, 0x61, 0x63, 0x45, 0xbc, 0xbc, 0x4d, 0xb1, 0xbc, 0xfc, 0xa, 0x9c, 0xbc, 0xa6, 0x4e, 0x76, 0xbc, 0xd3, 0x3e, 0xb8, 0xbc, 0xe8, 0x32, 0x81, 0x3c, 0xeb, 0xc1, 0xcb, 0x3c, 0x63, 0x3d, 0x5f, 0xbc, 0x21, 0x9d, 0xaf, 0xbc, 0x3, 0x7c, 0xb0, 0x3c, 0x64, 0xa, 0x96, 0xbc, 0x68, 0x22, 0xb7, 0x3c, 0x31, 0xc9, 0x98, 0xbc, 0x6e, 0x72, 0xad, 0xbc, 0x1f, 0xb8, 0xa0, 0xbc, 0x9e, 0x23, 0xb8, 0x3c, 0x98, 0xf8, 0x81, 0xbc, 0xc4, 0x31, 0xc6, 0x3c, 0x4d, 0xd7, 0x9e, 0xbc, 0xb, 0xb7, 0xaf, 0xbc, 0x9c, 0xed, 0x8b, 0xbc, 0xad, 0xf8, 0xbc, 0x3c, 0x67, 0x18, 0xb9, 0x3c, 0x19, 0x98, 0xa6, 0x3c, 0xd5, 0x52, 0xb2, 0x3c, 0xbe, 0x26, 0xac, 0xbc, 0x53, 0x73, 0xb7, 0x3c, 0x87, 0x7f, 0xaa, 0xbc, 0xd8, 0xae, 0xa0, 0x3c, 0x96, 0x22, 0x74, 0x3c, 0x30, 0x3e, 0x85, 0xbc, 0x0, 0x0, 0x6, 0x0, 0x8, 0x0, 0x4, 0x0, 0x6, 0x0, 0x0, 0x0, 0x4, 0x0, 0x0, 0x0, 0x4, 0x0, 0x0, 0x0, 0x81, 0xbf, 0xbc, 0x3c, 0x40, 0xfb, 0xff, 0xff, 0x44, 0xfb, 0xff, 0xff, 0xf, 0x0, 0x0, 0x0, 0x4d, 0x4c, 0x49, 0x52, 0x20, 0x43, 0x6f, 0x6e, 0x76, 0x65, 0x72, 0x74, 0x65, 0x64, 0x2e, 0x0, 0x1, 0x0, 0x0, 0x0, 0x14, 0x0, 0x0, 0x0, 0x0, 0x0, 0xe, 0x0, 0x18, 0x0, 0x14, 0x0, 0x10, 0x0, 0xc, 0x0, 0x8, 0x0, 0x4, 0x0, 0xe, 0x0, 0x0, 0x0, 0x14, 0x0, 0x0, 0x0, 0x1c, 0x0, 0x0, 0x0, 0xd8, 0x0, 0x0, 0x0, 0xdc, 0x0, 0x0, 0x0, 0xe0, 0x0, 0x0, 0x0, 0x4, 0x0, 0x0, 0x0, 0x6d, 0x61, 0x69, 0x6e, 0x0, 0x0, 0x0, 0x0, 0x3, 0x0, 0x0, 0x0, 0x80, 0x0, 0x0, 0x0, 0x38, 0x0, 0x0, 0x0, 0x4, 0x0, 0x0, 0x0, 0x9a, 0xff, 0xff, 0xff, 0x10, 0x0, 0x0, 0x0, 0x0, 0x0, 0x0, 0x8, 0xc, 0x0, 0x0, 0x0, 0x10, 0x0, 0x0, 0x0, 0xbc, 0xfb, 0xff, 0xff, 0x1, 0x0, 0x0, 0x0, 0x9, 0x0, 0x0, 0x0, 0x3, 0x0, 0x0, 0x0, 0x8, 0x0, 0x0, 0x0, 0x6, 0x0, 0x0, 0x0, 0x1, 0x0, 0x0, 0x0, 0xca, 0xff, 0xff, 0xff, 0x10, 0x0, 0x0, 0x0, 0x0, 0x0, 0x0, 0x8, 0x10, 0x0, 0x0, 0x0, 0x14, 0x0, 0x0, 0x0, 0xba, 0xff, 0xff, 0xff, 0x0, 0x0, 0x0, 0x1, 0x1, 0x0, 0x0, 0x0, 0x8, 0x0, 0x0, 0x0, 0x3, 0x0, 0x0, 0x0, 0x7, 0x0, 0x0, 0x0, 0x5, 0x0, 0x0, 0x0, 0x2, 0x0, 0x0, 0x0, 0x0, 0x0, 0xe, 0x0, 0x16, 0x0, 0x0, 0x0, 0x10, 0x0, 0xc, 0x0, 0xb, 0x0, 0x4, 0x0, 0xe, 0x0, 0x0, 0x0, 0x18, 0x0, 0x0, 0x0, 0x0, 0x0, 0x0, 0x8, 0x18, 0x0, 0x0, 0x0, 0x1c, 0x0, 0x0, 0x0, 0x0, 0x0, 0x6, 0x0, 0x8, 0x0, 0x7, 0x0, 0x6, 0x0, 0x0, 0x0, 0x0, 0x0, 0x0, 0x1, 0x1, 0x0, 0x0, 0x0, 0x7, 0x0, 0x0, 0x0, 0x3, 0x0, 0x0, 0x0, 0x0, 0x0, 0x0, 0x0, 0x4, 0x0, 0x0, 0x0, 0x3, 0x0, 0x0, 0x0, 0x1, 0x0, 0x0, 0x0, 0x9, 0x0, 0x0, 0x0, 0x1, 0x0, 0x0, 0x0, 0x0, 0x0, 0x0, 0x0, 0xa, 0x0, 0x0, 0x0, 0x6c, 0x3, 0x0, 0x0, 0x0, 0x3, 0x0, 0x0, 0x94, 0x2, 0x0, 0x0, 0x40, 0x2, 0x0, 0x0, 0xf8, 0x1, 0x0, 0x0, 0xb0, 0x1, 0x0, 0x0, 0x68, 0x1, 0x0, 0x0, 0xe4, 0x0, 0x0, 0x0, 0x60, 0x0, 0x0, 0x0, 0x4, 0x0, 0x0, 0x0, 0xd2, 0xfc, 0xff, 0xff, 0x0, 0x0, 0x0, 0x1, 0x14, 0x0, 0x0, 0x0, 0x1c, 0x0, 0x0, 0x0, 0x1c, 0x0, 0x0, 0x0, 0xa, 0x0, 0x0, 0x0, 0x34, 0x0, 0x0, 0x0, 0x2, 0x0, 0x0, 0x0, 0xff, 0xff, 0xff, 0xff, 0x1, 0x0, 0x0, 0x0, 0xbc, 0xfc, 0xff, 0xff, 0x19, 0x0, 0x0, 0x0, 0x53, 0x74, 0x61, 0x74, 0x65, 0x66, 0x75, 0x6c, 0x50, 0x61, 0x72, 0x74, 0x69, 0x74, 0x69, 0x6f, 0x6e, 0x65, 0x64, 0x43, 0x61, 0x6c, 0x6c, 0x3a, 0x30, 0x0, 0x0, 0x0, 0x2, 0x0, 0x0, 0x0, 0x1, 0x0, 0x0, 0x0, 0x1, 0x0, 0x0, 0x0, 0x2a, 0xfd, 0xff, 0xff, 0x0, 0x0, 0x0, 0x1, 0x14, 0x0, 0x0, 0x0, 0x1c, 0x0, 0x0, 0x0, 0x1c, 0x0, 0x0, 0x0, 0x9, 0x0, 0x0, 0x0, 0x5c, 0x0, 0x0, 0x0, 0x2, 0x0, 0x0, 0x0, 0xff, 0xff, 0xff, 0xff, 0x20, 0x0, 0x0, 0x0, 0x14, 0xfd, 0xff, 0xff, 0x43, 0x0, 0x0, 0x0, 0x6d, 0x6f, 0x64, 0x65, 0x6c, 0x5f, 0x32, 0x2f, 0x64, 0x65, 0x6e, 0x73, 0x65, 0x5f, 0x37, 0x2f, 0x4d, 0x61, 0x74, 0x4d, 0x75, 0x6c, 0x3b, 0x6d, 0x6f, 0x64, 0x65, 0x6c, 0x5f, 0x32, 0x2f, 0x64, 0x65, 0x6e, 0x73, 0x65, 0x5f, 0x37, 0x2f, 0x52, 0x65, 0x6c, 0x75, 0x3b, 0x6d, 0x6f, 0x64, 0x65, 0x6c, 0x5f, 0x32, 0x2f, 0x64, 0x65, 0x6e, 0x73, 0x65, 0x5f, 0x37, 0x2f, 0x42, 0x69, 0x61, 0x73, 0x41, 0x64, 0x64, 0x0, 0x2, 0x0, 0x0, 0x0, 0x1, 0x0, 0x0, 0x0, 0x20, 0x0, 0x0, 0x0, 0xaa, 0xfd, 0xff, 0xff, 0x0, 0x0, 0x0, 0x1, 0x14, 0x0, 0x0, 0x0, 0x1c, 0x0, 0x0, 0x0, 0x1c, 0x0, 0x0, 0x0, 0x8, 0x0, 0x0, 0x0, 0x5c, 0x0, 0x0, 0x0, 0x2, 0x0, 0x0, 0x0, 0xff, 0xff, 0xff, 0xff, 0x40, 0x0, 0x0, 0x0, 0x94, 0xfd, 0xff, 0xff, 0x43, 0x0, 0x0, 0x0, 0x6d, 0x6f, 0x64, 0x65, 0x6c, 0x5f, 0x32, 0x2f, 0x64, 0x65, 0x6e, 0x73, 0x65, 0x5f, 0x36, 0x2f, 0x4d, 0x61, 0x74, 0x4d, 0x75, 0x6c, 0x3b, 0x6d, 0x6f, 0x64, 0x65, 0x6c, 0x5f, 0x32, 0x2f, 0x64, 0x65, 0x6e, 0x73, 0x65, 0x5f, 0x36, 0x2f, 0x52, 0x65, 0x6c, 0x75, 0x3b, 0x6d, 0x6f, 0x64, 0x65, 0x6c, 0x5f, 0x32, 0x2f, 0x64, 0x65, 0x6e, 0x73, 0x65, 0x5f, 0x36, 0x2f, 0x42, 0x69, 0x61, 0x73, 0x41, 0x64, 0x64, 0x0, 0x2, 0x0, 0x0, 0x0, 0x1, 0x0, 0x0, 0x0, 0x40, 0x0, 0x0, 0x0, 0x92, 0xfe, 0xff, 0xff, 0x0, 0x0, 0x0, 0x1, 0x10, 0x0, 0x0, 0x0, 0x10, 0x0, 0x0, 0x0, 0x7, 0x0, 0x0, 0x0, 0x24, 0x0, 0x0, 0x0, 0x4, 0xfe, 0xff, 0xff, 0x16, 0x0, 0x0, 0x0, 0x6d, 0x6f, 0x64, 0x65, 0x6c, 0x5f, 0x32, 0x2f, 0x64, 0x65, 0x6e, 0x73, 0x65, 0x5f, 0x38, 0x2f, 0x4d, 0x61, 0x74, 0x4d, 0x75, 0x6c, 0x0, 0x0, 0x2, 0x0, 0x0, 0x0, 0x1, 0x0, 0x0, 0x0, 0x20, 0x0, 0x0, 0x0, 0xd6, 0xfe, 0xff, 0xff, 0x0, 0x0, 0x0, 0x1, 0x10, 0x0, 0x0, 0x0, 0x10, 0x0, 0x0, 0x0, 0x6, 0x0, 0x0, 0x0, 0x24, 0x0, 0x0, 0x0, 0x48, 0xfe, 0xff, 0xff, 0x16, 0x0, 0x0, 0x0, 0x6d, 0x6f, 0x64, 0x65, 0x6c, 0x5f, 0x32, 0x2f, 0x64, 0x65, 0x6e, 0x73, 0x65, 0x5f, 0x37, 0x2f, 0x4d, 0x61, 0x74, 0x4d, 0x75, 0x6c, 0x0, 0x0, 0x2, 0x0, 0x0, 0x0, 0x20, 0x0, 0x0, 0x0, 0x40, 0x0, 0x0, 0x0, 0x1a, 0xff, 0xff, 0xff, 0x0, 0x0, 0x0, 0x1, 0x10, 0x0, 0x0, 0x0, 0x10, 0x0, 0x0, 0x0, 0x5, 0x0, 0x0, 0x0, 0x24, 0x0, 0x0, 0x0, 0x8c, 0xfe, 0xff, 0xff, 0x16, 0x0, 0x0, 0x0, 0x6d, 0x6f, 0x64, 0x65, 0x6c, 0x5f, 0x32, 0x2f, 0x64, 0x65, 0x6e, 0x73, 0x65, 0x5f, 0x36, 0x2f, 0x4d, 0x61, 0x74, 0x4d, 0x75, 0x6c, 0x0, 0x0, 0x2, 0x0, 0x0, 0x0, 0x40, 0x0, 0x0, 0x0, 0x7, 0x0, 0x0, 0x0, 0x5e, 0xff, 0xff, 0xff, 0x0, 0x0, 0x0, 0x1, 0x10, 0x0, 0x0, 0x0, 0x10, 0x0, 0x0, 0x0, 0x4, 0x0, 0x0, 0x0, 0x34, 0x0, 0x0, 0x0, 0xd0, 0xfe, 0xff, 0xff, 0x26, 0x0, 0x0, 0x0, 0x6d, 0x6f, 0x64, 0x65, 0x6c, 0x5f, 0x32, 0x2f, 0x64, 0x65, 0x6e, 0x73, 0x65, 0x5f, 0x36, 0x2f, 0x42, 0x69, 0x61, 0x73, 0x41, 0x64, 0x64, 0x2f, 0x52, 0x65, 0x61, 0x64, 0x56, 0x61, 0x72, 0x69, 0x61, 0x62, 0x6c, 0x65, 0x4f, 0x70, 0x0, 0x0, 0x1, 0x0, 0x0, 0x0, 0x40, 0x0, 0x0, 0x0, 0xae, 0xff, 0xff, 0xff, 0x0, 0x0, 0x0, 0x1, 0x10, 0x0, 0x0, 0x0, 0x10, 0x0, 0x0, 0x0, 0x3, 0x0, 0x0, 0x0, 0x34, 0x0, 0x0, 0x0, 0x20, 0xff, 0xff, 0xff, 0x26, 0x0, 0x0, 0x0, 0x6d, 0x6f, 0x64, 0x65, 0x6c, 0x5f, 0x32, 0x2f, 0x64, 0x65, 0x6e, 0x73, 0x65, 0x5f, 0x37, 0x2f, 0x42, 0x69, 0x61, 0x73, 0x41, 0x64, 0x64, 0x2f, 0x52, 0x65, 0x61, 0x64, 0x56, 0x61, 0x72, 0x69, 0x61, 0x62, 0x6c, 0x65, 0x4f, 0x70, 0x0, 0x0, 0x1, 0x0, 0x0, 0x0, 0x20, 0x0, 0x0, 0x0, 0x0, 0x0, 0x16, 0x0, 0x18, 0x0, 0x14, 0x0, 0x0, 0x0, 0x10, 0x0, 0xc, 0x0, 0x8, 0x0, 0x0, 0x0, 0x0, 0x0, 0x0, 0x0, 0x7, 0x0, 0x16, 0x0, 0x0, 0x0, 0x0, 0x0, 0x0, 0x1, 0x10, 0x0, 0x0, 0x0, 0x10, 0x0, 0x0, 0x0, 0x2, 0x0, 0x0, 0x0, 0x34, 0x0, 0x0, 0x0, 0x88, 0xff, 0xff, 0xff, 0x26, 0x0, 0x0, 0x0, 0x6d, 0x6f, 0x64, 0x65, 0x6c, 0x5f, 0x32, 0x2f, 0x64, 0x65, 0x6e, 0x73, 0x65, 0x5f, 0x38, 0x2f, 0x42, 0x69, 0x61, 0x73, 0x41, 0x64, 0x64, 0x2f, 0x52, 0x65, 0x61, 0x64, 0x56, 0x61, 0x72, 0x69, 0x61, 0x62, 0x6c, 0x65, 0x4f, 0x70, 0x0, 0x0, 0x1, 0x0, 0x0, 0x0, 0x1, 0x0, 0x0, 0x0, 0x0, 0x0, 0x16, 0x0, 0x1c, 0x0, 0x18, 0x0, 0x0, 0x0, 0x14, 0x0, 0x10, 0x0, 0xc, 0x0, 0x0, 0x0, 0x0, 0x0, 0x8, 0x0, 0x7, 0x0, 0x16, 0x0, 0x0, 0x0, 0x0, 0x0, 0x0, 0x1, 0x14, 0x0, 0x0, 0x0, 0x20, 0x0, 0x0, 0x0, 0x20, 0x0, 0x0, 0x0, 0x1, 0x0, 0x0, 0x0, 0x38, 0x0, 0x0, 0x0, 0x2, 0x0, 0x0, 0x0, 0xff, 0xff, 0xff, 0xff, 0x7, 0x0, 0x0, 0x0, 0x4, 0x0, 0x4, 0x0, 0x4, 0x0, 0x0, 0x0, 0x19, 0x0, 0x0, 0x0, 0x73, 0x65, 0x72, 0x76, 0x69, 0x6e, 0x67, 0x5f, 0x64, 0x65, 0x66, 0x61, 0x75, 0x6c, 0x74, 0x5f, 0x69, 0x6e, 0x70, 0x75, 0x74, 0x5f, 0x33, 0x3a, 0x30, 0x0, 0x0, 0x0, 0x2, 0x0, 0x0, 0x0, 0x1, 0x0, 0x0, 0x0, 0x7, 0x0, 0x0, 0x0, 0x1, 0x0, 0x0, 0x0, 0x10, 0x0, 0x0, 0x0, 0xc, 0x0, 0xc, 0x0, 0xb, 0x0, 0x0, 0x0, 0x0, 0x0, 0x4, 0x0, 0xc, 0x0, 0x0, 0x0, 0x9, 0x0, 0x0, 0x0, 0x0, 0x0, 0x0, 0x9, 
};

#endif
